<pad>	0
<unk>	0
<s>	0
</s>	0
<mask>	0
<sep>	0
<cls>	0
▁t	-0
he	-1
▁a	-2
in	-3
er	-4
on	-5
▁the	-6
re	-7
an	-8
or	-9
ed	-10
en	-11
at	-12
▁o	-13
is	-14
▁s	-15
▁w	-16
ar	-17
es	-18
it	-19
al	-20
nd	-21
▁of	-22
▁in	-23
▁f	-24
▁c	-25
ing	-26
as	-27
▁b	-28
▁and	-29
▁p	-30
▁S	-31
ic	-32
ou	-33
ion	-34
om	-35
▁A	-36
le	-37
▁T	-38
▁to	-39
▁C	-40
▁d	-41
il	-42
▁M	-43
▁h	-44
▁m	-45
▁1	-46
am	-47
ent	-48
▁(	-49
▁B	-50
▁re	-51
el	-52
ol	-53
▁P	-54
st	-55
▁H	-56
ro	-57
▁I	-58
▁l	-59
ac	-60
ad	-61
▁R	-62
▁2	-63
▁was	-64
▁D	-65
▁th	-66
ter	-67
▁The	-68
ec	-69
▁n	-70
ur	-71
ation	-72
iv	-73
us	-74
▁for	-75
▁on	-76
ir	-77
ly	-78
ch	-79
id	-80
et	-81
em	-82
▁F	-83
ig	-84
▁L	-85
im	-86
▁E	-87
ot	-88
ut	-89
▁19	-90
▁N	-91
▁as	-92
ay	-93
▁G	-94
▁e	-95
▁W	-96
▁20	-97
and	-98
ith	-99
▁g	-100
▁J	-101
▁he	-102
ow	-103
▁is	-104
ag	-105
ul	-106
ist	-107
ers	-108
un	-109
▁with	-110
▁st	-111
th	-112
▁O	-113
▁al	-114
▁"	-115
ra	-116
ce	-117
▁by	-118
ct	-119
▁at	-120
rom	-121
▁be	-122
os	-123
um	-124
▁wh	-125
our	-126
ver	-127
▁that	-128
ian	-129
her	-130
▁In	-131
▁K	-132
if	-133
▁an	-134
▁con	-135
est	-136
av	-137
ain	-138
od	-139
ber	-140
▁from	-141
▁U	-142
ri	-143
oc	-144
▁his	-145
op	-146
ts	-147
ill	-148
▁de	-149
ity	-150
ia	-151
▁St	-152
pp	-153
▁v	-154
ew	-155
▁r	-156
▁com	-157
art	-158
res	-159
ard	-160
ud	-161
ke	-162
ate	-163
▁pro	-164
all	-165
▁it	-166
ces	-167
),	-168
ab	-169
ord	-170
ies	-171
ub	-172
ip	-173
qu	-174
ary	-175
▁–	-176
se	-177
ich	-178
ld	-179
igh	-180
▁Ch	-181
ort	-182
▁ch	-183
00	-184
▁V	-185
▁le	-186
ks	-187
pt	-188
ear	-189
ov	-190
▁201	-191
uc	-192
ell	-193
ore	-194
▁He	-195
▁Re	-196
ant	-197
og	-198
fer	-199
ish	-200
ive	-201
end	-202
ast	-203
rou	-204
ated	-205
▁ex	-206
ust	-207
so	-208
gh	-209
oun	-210
▁or	-211
ial	-212
▁pl	-213
ue	-214
ge	-215
▁are	-216
ong	-217
ak	-218
ame	-219
ren	-220
ment	-221
ine	-222
ere	-223
ap	-224
▁also	-225
ie	-226
mer	-227
▁Se	-228
▁se	-229
ok	-230
▁sp	-231
▁k	-232
ember	-233
▁y	-234
ure	-235
ool	-236
▁were	-237
ran	-238
ost	-239
ess	-240
ory	-241
ther	-242
ect	-243
man	-244
▁which	-245
19	-246
ire	-247
ome	-248
up	-249
▁Un	-250
rit	-251
ition	-252
tern	-253
ric	-254
▁not	-255
▁ar	-256
age	-257
▁sh	-258
▁had	-259
chool	-260
).	-261
▁18	-262
ph	-263
are	-264
▁3	-265
cl	-266
ous	-267
▁200	-268
land	-269
ru	-270
ork	-271
ave	-272
20	-273
▁Ar	-274
ff	-275
▁Y	-276
▁Th	-277
▁their	-278
▁comp	-279
ild	-280
▁her	-281
to	-282
ack	-283
feren	-284
ass	-285
ical	-286
ry	-287
irst	-288
au	-289
▁whe	-290
orn	-291
ang	-292
hed	-293
ib	-294
▁Mar	-295
own	-296
▁Le	-297
▁who	-298
ign	-299
ice	-300
▁un	-301
ational	-302
ight	-303
ult	-304
fter	-305
ach	-306
▁su	-307
▁ad	-308
te	-309
erv	-310
ound	-311
▁has	-312
und	-313
ould	-314
▁te	-315
ferences	-316
ction	-317
oll	-318
ations	-319
ace	-320
aj	-321
▁us	-322
▁cont	-323
▁first	-324
ide	-325
▁j	-326
wo	-327
ond	-328
▁202	-329
▁References	-330
iz	-331
per	-332
▁It	-333
ater	-334
▁res	-335
▁she	-336
ates	-337
▁ab	-338
ount	-339
▁An	-340
out	-341
▁all	-342
▁rec	-343
▁year	-344
ally	-345
aw	-346
act	-347
▁Al	-348
clud	-349
▁cl	-350
ied	-351
ug	-352
ubl	-353
▁pr	-354
▁en	-355
over	-356
▁199	-357
▁but	-358
▁one	-359
ne	-360
▁part	-361
ree	-362
▁ag	-363
ile	-364
▁Ph	-365
▁ac	-366
▁app	-367
iss	-368
▁Sp	-369
io	-370
ime	-371
▁play	-372
ite	-373
▁As	-374
▁5	-375
▁includ	-376
oh	-377
ican	-378
▁Com	-379
eb	-380
".	-381
▁its	-382
▁bec	-383
▁(19	-384
ivers	-385
amp	-386
▁this	-387
ens	-388
ama	-389
les	-390
▁4	-391
ath	-392
ress	-393
ents	-394
uring	-395
▁Amer	-396
▁comm	-397
ited	-398
▁two	-399
▁New	-400
sh	-401
wn	-402
ily	-403
oin	-404
ons	-405
▁En	-406
▁have	-407
any	-408
ted	-409
ood	-410
▁198	-411
▁On	-412
▁ed	-413
▁Ex	-414
▁Sh	-415
ob	-416
vel	-417
▁out	-418
pl	-419
ans	-420
old	-421
als	-422
for	-423
▁into	-424
▁they	-425
▁been	-426
▁per	-427
▁De	-428
ased	-429
▁dis	-430
▁6	-431
ward	-432
ence	-433
ah	-434
▁sc	-435
▁after	-436
▁other	-437
oy	-438
▁reg	-439
rad	-440
▁des	-441
ough	-442
▁im	-443
ings	-444
ely	-445
ont	-446
olog	-447
▁att	-448
▁child	-449
ark	-450
roup	-451
outh	-452
▁school	-453
ind	-454
▁American	-455
ors	-456
▁9	-457
ose	-458
▁would	-459
lect	-460
we	-461
ym	-462
▁up	-463
▁ro	-464
▁work	-465
vi	-466
ife	-467
▁15	-468
▁off	-469
ished	-470
▁She	-471
iversity	-472
ilm	-473
ason	-474
gan	-475
one	-476
▁ne	-477
ik	-478
urn	-479
ions	-480
under	-481
istory	-482
ase	-483
200	-484
red	-485
ton	-486
▁197	-487
▁him	-488
▁Phil	-489
▁over	-490
▁Z	-491
▁Pro	-492
rough	-493
▁lin	-494
air	-495
▁ev	-496
ve	-497
ade	-498
ail	-499
▁kn	-500
ober	-501
▁team	-502
▁University	-503
▁Car	-504
▁serv	-505
rib	-506
ague	-507
reat	-508
▁fam	-509
▁cons	-510
▁rep	-511
▁bo	-512
▁them	-513
ived	-514
▁(20	-515
duc	-516
ict	-517
une	-518
▁ass	-519
3,	-520
ram	-521
usic	-522
ollow	-523
onour	-524
ince	-525
▁196	-526
▁Joh	-527
▁bet	-528
▁time	-529
ics	-530
phy	-531
arly	-532
overn	-533
▁under	-534
hen	-535
▁Ind	-536
ident	-537
li	-538
able	-539
ance	-540
▁-	-541
ina	-542
▁Eng	-543
ternal	-544
▁pe	-545
4,	-546
ement	-547
ister	-548
18	-549
ajau	-550
▁publ	-551
▁record	-552
▁do	-553
eat	-554
▁Sama	-555
ced	-556
▁new	-557
pr	-558
ween	-559
▁fin	-560
orth	-561
▁again	-562
ays	-563
use	-564
▁At	-565
round	-566
du	-567
▁when	-568
▁Honour	-569
▁children	-570
1,	-571
son	-572
ogra	-573
▁sec	-574
▁links	-575
▁10	-576
▁7	-577
2,	-578
ock	-579
▁Me	-580
ener	-581
ines	-582
▁This	-583
▁External	-584
ann	-585
▁16	-586
cess	-587
▁ret	-588
▁John	-589
▁Sc	-590
▁(200	-591
▁film	-592
▁years	-593
5,	-594
cc	-595
▁co	-596
ered	-597
rans	-598
▁Con	-599
inn	-600
▁pre	-601
▁educ	-602
ep	-603
ake	-604
ick	-605
▁Cl	-606
▁me	-607
▁sub	-608
▁stud	-609
▁between	-610
az	-611
oci	-612
▁National	-613
▁Is	-614
▁loc	-615
▁supp	-616
▁ra	-617
orld	-618
▁May	-619
▁pol	-620
▁8	-621
ouse	-622
▁act	-623
."	-624
▁where	-625
▁Br	-626
▁United	-627
anu	-628
emb	-629
▁IS	-630
ames	-631
ople	-632
▁Aug	-633
▁rel	-634
▁group	-635
▁during	-636
▁17	-637
▁Ab	-638
form	-639
▁dec	-640
▁more	-641
bum	-642
ious	-643
▁qu	-644
▁imp	-645
▁later	-646
ptember	-647
▁Ju	-648
ille	-649
▁follow	-650
aid	-651
acks	-652
ians	-653
▁def	-654
ative	-655
▁March	-656
ern	-657
oot	-658
ual	-659
",	-660
pe	-661
▁ind	-662
▁rem	-663
▁found	-664
▁August	-665
che	-666
areer	-667
▁Fran	-668
▁some	-669
▁known	-670
olle	-671
▁War	-672
ional	-673
att	-674
uth	-675
▁inv	-676
eries	-677
▁September	-678
ix	-679
eld	-680
ron	-681
ities	-682
17	-683
fore	-684
▁Dec	-685
▁family	-686
ower	-687
▁tra	-688
▁home	-689
▁lead	-690
▁most	-691
▁being	-692
▁Nov	-693
▁can	-694
▁leg	-695
▁there	-696
cy	-697
erman	-698
oth	-699
▁July	-700
ek	-701
lish	-702
ters	-703
▁three	-704
▁became	-705
ral	-706
omen	-707
▁June	-708
▁made	-709
▁about	-710
▁album	-711
▁Bl	-712
▁Fl	-713
▁York	-714
▁four	-715
0.	-716
▁Par	-717
▁mar	-718
▁rele	-719
▁writ	-720
ctober	-721
▁season	-722
ins	-723
▁bu	-724
iver	-725
pril	-726
▁form	-727
▁including	-728
ision	-729
▁then	-730
▁fl	-731
▁Pr	-732
ball	-733
way	-734
ship	-735
▁well	-736
▁through	-737
omes	-738
view	-739
▁art	-740
ating	-741
BN	-742
ymour	-743
▁prov	-744
▁League	-745
ft	-746
ett	-747
▁mov	-748
erson	-749
resent	-750
▁October	-751
▁Seymour	-752
0,	-753
yst	-754
▁Pe	-755
▁call	-756
▁rece	-757
▁used	-758
1.	-759
ss	-760
other	-761
▁ISBN	-762
very	-763
▁acc	-764
Bajau	-765
▁Comm	-766
▁cent	-767
▁April	-768
▁States	-769
its	-770
▁bro	-771
▁South	-772
ific	-773
ural	-774
▁For	-775
▁only	-776
▁inter	-777
▁music	-778
ier	-779
▁so	-780
born	-781
▁own	-782
6,	-783
9,	-784
erm	-785
ten	-786
til	-787
▁Am	-788
▁Pl	-789
3.	-790
▁tr	-791
▁while	-792
overnment	-793
▁December	-794
ise	-795
ather	-796
▁people	-797
apt	-798
row	-799
▁Bo	-800
igned	-801
▁After	-802
▁trans	-803
▁November	-804
arn	-805
oss	-806
aren	-807
ison	-808
▁Bre	-809
arg	-810
eng	-811
ful	-812
ism	-813
ven	-814
▁13	-815
▁dr	-816
ised	-817
▁min	-818
▁Ge	-819
ever	-820
▁band	-821
..	-822
▁Q	-823
ash	-824
ired	-825
part	-826
▁ent	-827
▁exp	-828
irect	-829
ology	-830
8,	-831
enn	-832
ebru	-833
ives	-834
▁194	-835
▁inc	-836
icial	-837
▁name	-838
ebruary	-839
ography	-840
▁against	-841
fess	-842
▁Min	-843
istor	-844
▁main	-845
opul	-846
▁end	-847
▁They	-848
▁February	-849
iam	-850
ury	-851
▁may	-852
▁West	-853
▁until	-854
▁second	-855
15	-856
ars	-857
ert	-858
ved	-859
apan	-860
▁add	-861
▁Aust	-862
▁am	-863
ford	-864
ield	-865
velop	-866
anuary	-867
ank	-868
elf	-869
key	-870
ually	-871
▁pass	-872
▁support	-873
▁Te	-874
ilit	-875
▁sur	-876
▁comple	-877
▁education	-878
fl	-879
xt	-880
▁&	-881
ures	-882
▁Comp	-883
▁History	-884
▁January	-885
isc	-886
▁Ad	-887
oman	-888
▁195	-889
ystem	-890
▁such	-891
▁German	-892
▁English	-893
omeschool	-894
2.	-895
amb	-896
▁life	-897
▁Japan	-898
▁World	-899
ae	-900
led	-901
▁sing	-902
5.	-903
7,	-904
ley	-905
▁190	-906
▁Bro	-907
▁king	-908
▁before	-909
▁former	-910
ale	-911
▁14	-912
aced	-913
▁int	-914
ese	-915
▁Ed	-916
atic	-917
▁disc	-918
▁spec	-919
▁station	-920
ternational	-921
hn	-922
ets	-923
▁no	-924
istr	-925
▁Can	-926
▁est	-927
▁mod	-928
owever	-929
▁played	-930
0-	-931
78	-932
by	-933
▁El	-934
▁Wh	-935
▁Mur	-936
▁Brit	-937
▁char	-938
▁list	-939
ootball	-940
ij	-941
ty	-942
▁Af	-943
▁bl	-944
▁Man	-945
▁ann	-946
ament	-947
iving	-948
▁join	-949
▁polit	-950
▁popul	-951
ott	-952
amed	-953
igin	-954
sp	-955
uss	-956
ifne	-957
ourn	-958
▁suc	-959
▁trad	-960
▁North	-961
▁career	-962
yn	-963
alk	-964
app	-965
imes	-966
stit	-967
▁His	-968
▁(199	-969
▁King	-970
▁head	-971
▁count	-972
▁Breifne	-973
my	-974
ingh	-975
ject	-976
ried	-977
ville	-978
▁desc	-979
ike	-980
▁12	-981
▁See	-982
▁start	-983
4.	-984
▁#	-985
ica	-986
inc	-987
▁we	-988
▁193	-989
▁oper	-990
▁than	-991
2)	-992
000	-993
aim	-994
ird	-995
uro	-996
▁son	-997
▁war	-998
ution	-999
▁said	-1000
▁direct	-1001
erg	-1002
ull	-1003
ards	-1004
augh	-1005
▁tit	-1006
ained	-1007
aking	-1008
osition	-1009
▁School	-1010
▁em	-1011
ages	-1012
cept	-1013
uthor	-1014
▁Cent	-1015
▁born	-1016
▁land	-1017
▁show	-1018
▁Afric	-1019
6.	-1020
ared	-1021
orts	-1022
▁did	-1023
▁run	-1024
▁return	-1025
els	-1026
ipp	-1027
▁Gr	-1028
▁Art	-1029
ended	-1030
▁elect	-1031
▁system	-1032
10	-1033
ior	-1034
pen	-1035
the	-1036
ants	-1037
line	-1038
▁now	-1039
▁won	-1040
veral	-1041
▁City	-1042
▁history	-1043
The	-1044
ief	-1045
onn	-1046
▁Be	-1047
ross	-1048
vent	-1049
▁All	-1050
▁Har	-1051
▁var	-1052
ues	-1053
▁Reg	-1054
wards	-1055
▁song	-1056
ission	-1057
▁since	-1058
ilitary	-1059
▁member	-1060
▁British	-1061
9.	-1062
▁gu	-1063
osed	-1064
▁Ass	-1065
▁Pol	-1066
▁bel	-1067
▁due	-1068
▁hel	-1069
▁Will	-1070
▁back	-1071
▁many	-1072
▁contr	-1073
▁death	-1074
▁gener	-1075
ene	-1076
oung	-1077
ting	-1078
▁any	-1079
▁high	-1080
▁Count	-1081
gg	-1082
ient	-1083
ized	-1084
▁Acc	-1085
▁med	-1086
▁mon	-1087
▁num	-1088
▁Geor	-1089
▁city	-1090
▁prog	-1091
▁began	-1092
▁called	-1093
▁series	-1094
▁ph	-1095
icip	-1096
ists	-1097
iven	-1098
▁eng	-1099
▁man	-1100
▁requ	-1101
me	-1102
hip	-1103
aving	-1104
▁Mont	-1105
▁prom	-1106
▁resp	-1107
▁same	-1108
14	-1109
off	-1110
ret	-1111
▁both	-1112
▁dist	-1113
▁early	-1114
ble	-1115
ove	-1116
▁II	-1117
▁sm	-1118
▁Chr	-1119
▁will	-1120
▁following	-1121
ai	-1122
ck	-1123
uck	-1124
▁area	-1125
▁feat	-1126
▁held	-1127
▁these	-1128
▁several	-1129
▁released	-1130
de	-1131
der	-1132
▁Gu	-1133
▁gr	-1134
▁ob	-1135
ajor	-1136
angu	-1137
▁law	-1138
▁help	-1139
▁near	-1140
ording	-1141
▁origin	-1142
3)	-1143
7.	-1144
ax	-1145
ane	-1146
ien	-1147
▁go	-1148
ring	-1149
▁192	-1150
▁Mor	-1151
anish	-1152
▁rest	-1153
▁public	-1154
resident	-1155
▁develop	-1156
▁profess	-1157
eth	-1158
med	-1159
ued	-1160
Rour	-1161
ator	-1162
▁Cal	-1163
▁cur	-1164
duction	-1165
▁received	-1166
▁government	-1167
▁homeschool	-1168
com	-1169
dom	-1170
ety	-1171
ute	-1172
▁Co	-1173
▁Or	-1174
▁Res	-1175
▁adv	-1176
▁arr	-1177
8.	-1178
▁'	-1179
▁Mus	-1180
▁bas	-1181
ption	-1182
▁named	-1183
ony	-1184
reen	-1185
ured	-1186
▁eff	-1187
ollege	-1188
▁build	-1189
▁women	-1190
ius	-1191
men	-1192
ects	-1193
▁ele	-1194
ility	-1195
▁Arch	-1196
▁cult	-1197
▁read	-1198
▁term	-1199
▁Jacks	-1200
anc	-1201
ause	-1202
ster	-1203
▁Her	-1204
▁Euro	-1205
▁crit	-1206
▁Canad	-1207
▁program	-1208
▁football	-1209
ki	-1210
▁$	-1211
eal	-1212
que	-1213
uch	-1214
ange	-1215
rent	-1216
▁par	-1217
▁Jackson	-1218
▁command	-1219
af	-1220
yl	-1221
irl	-1222
▁978	-1223
▁Mal	-1224
▁age	-1225
▁ext	-1226
duced	-1227
▁long	-1228
ically	-1229
▁allow	-1230
▁could	-1231
bo	-1232
lin	-1233
rew	-1234
▁fe	-1235
▁Bar	-1236
ience	-1237
▁There	-1238
▁author	-1239
▁commun	-1240
ana	-1241
aut	-1242
orm	-1243
ung	-1244
ided	-1245
▁Bas	-1246
▁Per	-1247
ality	-1248
▁Char	-1249
▁Press	-1250
▁paren	-1251
▁Europe	-1252
be	-1253
ats	-1254
aus	-1255
hel	-1256
rid	-1257
▁Em	-1258
urch	-1259
▁ref	-1260
ified	-1261
iness	-1262
▁died	-1263
▁down	-1264
▁langu	-1265
▁compet	-1266
▁served	-1267
lim	-1268
min	-1269
oks	-1270
▁Sw	-1271
▁po	-1272
ains	-1273
port	-1274
rict	-1275
rish	-1276
▁ord	-1277
▁use	-1278
ially	-1279
▁East	-1280
▁inst	-1281
▁like	-1282
▁port	-1283
▁state	-1284
▁contin	-1285
partment	-1286
1)	-1287
por	-1288
▁Dav	-1289
▁Rec	-1290
▁Dave	-1291
▁young	-1292
▁Christ	-1293
16	-1294
ía	-1295
▁Gl	-1296
adio	-1297
etro	-1298
▁col	-1299
▁book	-1300
▁vill	-1301
ves	-1302
▁Mc	-1303
▁Tr	-1304
▁let	-1305
▁occ	-1306
▁sim	-1307
▁Stud	-1308
▁camp	-1309
▁open	-1310
usiness	-1311
▁County	-1312
▁During	-1313
▁appear	-1314
▁around	-1315
▁Austral	-1316
▁success	-1317
▁published	-1318
arch	-1319
▁Che	-1320
aster	-1321
riend	-1322
▁based	-1323
ode	-1324
▁1,	-1325
atus	-1326
ible	-1327
▁dif	-1328
illion	-1329
▁along	-1330
▁exper	-1331
▁Philip	-1332
▁William	-1333
▁official	-1334
let	-1335
ner	-1336
ounc	-1337
rote	-1338
▁188	-1339
▁Med	-1340
▁Park	-1341
▁Publ	-1342
▁last	-1343
▁ship	-1344
▁final	-1345
▁legal	-1346
▁Spanish	-1347
9)	-1348
ales	-1349
lear	-1350
orks	-1351
▁each	-1352
▁race	-1353
▁took	-1354
▁stand	-1355
▁teams	-1356
▁histor	-1357
▁military	-1358
▁[	-1359
▁189	-1360
▁car	-1361
ively	-1362
Rourke	-1363
▁local	-1364
▁describ	-1365
itt	-1366
vers	-1367
▁Des	-1368
▁Flor	-1369
▁father	-1370
▁However	-1371
▁brother	-1372
▁International	-1373
4)	-1374
ms	-1375
ago	-1376
ilt	-1377
ple	-1378
ecut	-1379
ored	-1380
read	-1381
▁Hol	-1382
▁Sec	-1383
▁del	-1384
▁Chok	-1385
▁left	-1386
ampion	-1387
▁event	-1388
▁house	-1389
▁title	-1390
▁wrote	-1391
▁number	-1392
ociation	-1393
▁include	-1394
▁parents	-1395
▁Jacksonville	-1396
ices	-1397
ourt	-1398
▁men	-1399
▁tri	-1400
attle	-1401
ature	-1402
▁House	-1403
▁appro	-1404
▁estab	-1405
▁consid	-1406
▁—	-1407
rim	-1408
▁vi	-1409
ches	-1410
▁led	-1411
▁old	-1412
ached	-1413
ights	-1414
▁Educ	-1415
▁Mary	-1416
▁sold	-1417
ctions	-1418
though	-1419
▁Roman	-1420
▁refer	-1421
12	-1422
ida	-1423
ink	-1424
ino	-1425
ium	-1426
lex	-1427
yle	-1428
▁Ul	-1429
▁sl	-1430
eder	-1431
▁Off	-1432
ently	-1433
▁Russ	-1434
ounced	-1435
▁James	-1436
▁power	-1437
▁within	-1438
▁Company	-1439
aul	-1440
▁Ac	-1441
itte	-1442
ones	-1443
ular	-1444
▁Col	-1445
▁Cor	-1446
▁Red	-1447
ocial	-1448
rench	-1449
▁Ital	-1450
▁Brian	-1451
▁China	-1452
▁given	-1453
▁third	-1454
▁Africa	-1455
ys	-1456
leg	-1457
▁la	-1458
iger	-1459
ords	-1460
▁And	-1461
▁Sup	-1462
▁six	-1463
▁conf	-1464
▁five	-1465
▁kill	-1466
▁organ	-1467
▁joined	-1468
▁Japanese	-1469
acy	-1470
ele	-1471
get	-1472
urg	-1473
▁Sm	-1474
ense	-1475
ital	-1476
roke	-1477
▁Mag	-1478
▁fac	-1479
ately	-1480
urther	-1481
▁College	-1482
▁company	-1483
13	-1484
7)	-1485
ald	-1486
▁Ag	-1487
▁No	-1488
aged	-1489
ying	-1490
▁Hen	-1491
▁cre	-1492
▁deb	-1493
▁voc	-1494
▁Mark	-1495
▁sett	-1496
▁River	-1497
▁Scott	-1498
▁claim	-1499
▁place	-1500
▁train	-1501
▁charac	-1502
▁Philipp	-1503
▁another	-1504
▁million	-1505
▁various	-1506
▁Minister	-1507
▁announced	-1508
▁represent	-1509
▁homeschooling	-1510
na	-1511
lit	-1512
ote	-1513
cent	-1514
▁day	-1515
▁opp	-1516
▁web	-1517
ments	-1518
▁game	-1519
▁hand	-1520
▁star	-1521
itional	-1522
▁Island	-1523
▁report	-1524
▁though	-1525
▁married	-1526
▁national	-1527
urs	-1528
▁11	-1529
ched	-1530
itar	-1531
▁dem	-1532
▁dom	-1533
▁dra	-1534
▁pit	-1535
▁(198	-1536
▁High	-1537
▁poin	-1538
▁prop	-1539
▁prot	-1540
▁what	-1541
ership	-1542
ouncil	-1543
▁still	-1544
▁started	-1545
bl	-1546
ael	-1547
int	-1548
▁Kh	-1549
▁el	-1550
ency	-1551
ruct	-1552
▁Cup	-1553
anted	-1554
ittee	-1555
▁came	-1556
▁make	-1557
▁mark	-1558
▁sign	-1559
ishing	-1560
▁short	-1561
▁those	-1562
▁French	-1563
▁George	-1564
▁prison	-1565
▁signed	-1566
▁England	-1567
▁village	-1568
▁included	-1569
▁population	-1570
▁i	-1571
ata	-1572
▁So	-1573
▁ep	-1574
adel	-1575
ests	-1576
ides	-1577
▁Leg	-1578
▁Mon	-1579
▁iss	-1580
▁set	-1581
▁som	-1582
▁Mich	-1583
▁does	-1584
▁went	-1585
ection	-1586
ournal	-1587
▁games	-1588
▁major	-1589
▁result	-1590
▁Education	-1591
co	-1592
yp	-1593
ogn	-1594
tal	-1595
adem	-1596
aken	-1597
isch	-1598
ival	-1599
phia	-1600
▁Lou	-1601
▁aut	-1602
▁spe	-1603
▁str	-1604
▁Bill	-1605
▁With	-1606
▁very	-1607
ington	-1608
▁Women	-1609
▁party	-1610
▁attack	-1611
39	-1612
amm	-1613
ams	-1614
ico	-1615
isl	-1616
ope	-1617
–19	-1618
–20	-1619
▁By	-1620
▁Ro	-1621
alth	-1622
arge	-1623
cher	-1624
▁Rep	-1625
vious	-1626
▁Part	-1627
▁sent	-1628
adelphia	-1629
▁located	-1630
▁business	-1631
ampionship	-1632
▁Philadelphia	-1633
1-	-1634
6)	-1635
iod	-1636
put	-1637
ror	-1638
▁We	-1639
ayan	-1640
itor	-1641
ness	-1642
rown	-1643
side	-1644
▁(18	-1645
▁inn	-1646
▁mat	-1647
▁non	-1648
▁Dist	-1649
▁capt	-1650
ements	-1651
▁Rober	-1652
▁among	-1653
▁import	-1654
▁person	-1655
▁player	-1656
.,	-1657
day	-1658
ody	-1659
rie	-1660
▁BC	-1661
cast	-1662
ront	-1663
uman	-1664
▁Bel	-1665
▁Fin	-1666
▁Pre	-1667
▁Ser	-1668
atory	-1669
ected	-1670
ondon	-1671
▁Wood	-1672
▁arch	-1673
▁cast	-1674
▁host	-1675
▁just	-1676
▁vers	-1677
aining	-1678
embers	-1679
▁Music	-1680
▁pract	-1681
▁having	-1682
▁current	-1683
▁position	-1684
eck	-1685
idd	-1686
ize	-1687
oph	-1688
▁Ke	-1689
▁Sl	-1690
▁Cat	-1691
▁Gre	-1692
rokee	-1693
▁2020	-1694
▁978-	-1695
▁Cast	-1696
▁List	-1697
▁larg	-1698
▁site	-1699
estern	-1700
inning	-1701
▁class	-1702
▁conqu	-1703
▁invol	-1704
ference	-1705
▁appoin	-1706
▁Florida	-1707
▁perform	-1708
▁registr	-1709
▁According	-1710
▁Association	-1711
án	-1712
adh	-1713
alf	-1714
hes	-1715
iro	-1716
ris	-1717
▁26	-1718
▁Ma	-1719
▁Ox	-1720
onom	-1721
wood	-1722
▁Sen	-1723
▁cap	-1724
itect	-1725
▁club	-1726
▁conc	-1727
▁fact	-1728
ention	-1729
reland	-1730
unicip	-1731
vision	-1732
▁colle	-1733
▁moved	-1734
▁works	-1735
▁London	-1736
▁Murphy	-1737
▁because	-1738
▁country	-1739
▁Cherokee	-1740
▁President	-1741
iff	-1742
ori	-1743
amin	-1744
echn	-1745
iter	-1746
self	-1747
▁Not	-1748
▁Vol	-1749
▁top	-1750
▁win	-1751
ician	-1752
ummer	-1753
▁Muse	-1754
▁best	-1755
▁post	-1756
lished	-1757
▁daugh	-1758
▁model	-1759
ivision	-1760
liament	-1761
▁recorded	-1762
50	-1763
–2	-1764
ani	-1765
ece	-1766
ney	-1767
rab	-1768
▁28	-1769
▁Bi	-1770
▁US	-1771
reet	-1772
ries	-1773
▁Sul	-1774
▁Tom	-1775
ailed	-1776
▁Band	-1777
▁Paul	-1778
ociety	-1779
▁Bajau	-1780
▁Oxford	-1781
▁design	-1782
▁building	-1783
▁Philippines	-1784
▁professional	-1785
oe	-1786
alt	-1787
▁Im	-1788
▁if	-1789
aval	-1790
died	-1791
site	-1792
▁Mej	-1793
▁Sim	-1794
▁Uth	-1795
▁met	-1796
▁ste	-1797
ument	-1798
▁Port	-1799
▁Zeal	-1800
▁bill	-1801
▁dest	-1802
▁even	-1803
▁side	-1804
▁vict	-1805
▁incre	-1806
▁intro	-1807
▁often	-1808
▁small	-1809
▁world	-1810
▁friend	-1811
▁Ireland	-1812
▁Zealand	-1813
▁kingdom	-1814
▁language	-1815
uk	-1816
ots	-1817
▁La	-1818
duct	-1819
ique	-1820
ovel	-1821
pite	-1822
▁Far	-1823
▁Ver	-1824
▁air	-1825
▁tag	-1826
▁Conn	-1827
▁ball	-1828
▁cond	-1829
▁init	-1830
▁late	-1831
▁tele	-1832
elling	-1833
▁Early	-1834
▁First	-1835
▁Mejía	-1836
▁award	-1837
▁large	-1838
▁Uthman	-1839
▁become	-1840
▁common	-1841
▁established	-1842
br	-1843
ps	-1844
ook	-1845
thi	-1846
▁Go	-1847
,000	-1848
empt	-1849
ling	-1850
▁191	-1851
▁Cur	-1852
▁vis	-1853
epend	-1854
thern	-1855
▁Prov	-1856
▁Thom	-1857
astern	-1858
itions	-1859
lected	-1860
▁Group	-1861
▁plant	-1862
▁story	-1863
▁water	-1864
ization	-1865
outhern	-1866
▁Career	-1867
▁Histor	-1868
▁Robert	-1869
▁Series	-1870
▁island	-1871
▁century	-1872
▁general	-1873
▁character	-1874
5)	-1875
sc	-1876
▁Ó	-1877
ara	-1878
▁Du	-1879
▁Ber	-1880
▁Cle	-1881
▁San	-1882
▁che	-1883
eball	-1884
icago	-1885
ridge	-1886
▁agre	-1887
▁need	-1888
▁next	-1889
ingham	-1890
▁Henry	-1891
▁Louis	-1892
▁State	-1893
▁These	-1894
▁round	-1895
▁engine	-1896
▁forces	-1897
▁previous	-1898
▁political	-1899
...	-1900
ati	-1901
ler	-1902
par	-1903
umb	-1904
▁24	-1905
▁tw	-1906
aces	-1907
aign	-1908
akes	-1909
ceed	-1910
▁100	-1911
▁Bra	-1912
▁Hay	-1913
▁Pal	-1914
▁Que	-1915
▁Tor	-1916
▁lab	-1917
▁grad	-1918
▁lost	-1919
uation	-1920
▁Bisch	-1921
▁Union	-1922
▁every	-1923
▁level	-1924
▁execut	-1925
▁single	-1926
▁worked	-1927
▁Bischoff	-1928
▁students	-1929
▁politician	-1930
ta	-1931
ze	-1932
ena	-1933
lam	-1934
urb	-1935
▁sk	-1936
iles	-1937
ocus	-1938
unch	-1939
▁gen	-1940
▁val	-1941
asons	-1942
ribut	-1943
▁real	-1944
▁repl	-1945
▁take	-1946
▁turn	-1947
ending	-1948
▁great	-1949
▁Canada	-1950
▁review	-1951
▁Chicago	-1952
▁elected	-1953
▁reading	-1954
formation	-1955
▁community	-1956
▁important	-1957
8)	-1958
IS	-1959
cer	-1960
rop	-1961
▁23	-1962
▁IV	-1963
▁Kn	-1964
▁Ne	-1965
▁ke	-1966
oice	-1967
sequ	-1968
ston	-1969
ulpt	-1970
▁how	-1971
isted	-1972
ittle	-1973
▁2000	-1974
▁Camp	-1975
▁Miss	-1976
▁days	-1977
▁expl	-1978
▁prim	-1979
▁Carol	-1980
▁Irish	-1981
▁Other	-1982
▁Peter	-1983
▁built	-1984
▁focus	-1985
▁radio	-1986
▁league	-1987
▁Charles	-1988
▁members	-1989
▁schools	-1990
▁website	-1991
▁returned	-1992
▁appointed	-1993
ey	-1994
hib	-1995
mar	-1996
sey	-1997
ume	-1998
upp	-1999
▁#1	-2000
▁22	-2001
ilke	-2002
less	-2003
rain	-2004
rior	-2005
▁Ang	-2006
▁bag	-2007
▁beg	-2008
▁mur	-2009
ances	-2010
eting	-2011
ockey	-2012
oston	-2013
▁Harv	-2014
▁Sing	-2015
▁When	-2016
▁much	-2017
▁role	-2018
▁spok	-2019
▁Armen	-2020
▁Frank	-2021
▁Party	-2022
▁Rilke	-2023
▁debut	-2024
ination	-2025
▁Status	-2026
▁differ	-2027
▁should	-2028
▁without	-2029
▁described	-2030
▁considered	-2031
0)	-2032
CA	-2033
▁X	-2034
avy	-2035
rap	-2036
ria	-2037
▁30	-2038
▁Rh	-2039
iers	-2040
itch	-2041
odes	-2042
▁Mac	-2043
▁Mad	-2044
▁Vij	-2045
▁aff	-2046
▁bar	-2047
▁beh	-2048
ander	-2049
ellow	-2050
field	-2051
itive	-2052
orter	-2053
▁Mart	-2054
▁Rich	-2055
▁Walk	-2056
▁must	-2057
▁priv	-2058
▁qual	-2059
▁rese	-2060
▁town	-2061
inated	-2062
▁activ	-2063
▁offic	-2064
▁order	-2065
▁right	-2066
▁Muslim	-2067
▁vocals	-2068
ological	-2069
▁America	-2070
▁Michael	-2071
▁Vijayan	-2072
▁process	-2073
▁daughter	-2074
ex	-2075
ny	-2076
8),	-2077
dis	-2078
era	-2079
ger	-2080
omb	-2081
pic	-2082
▁Qu	-2083
▁ec	-2084
▁km	-2085
hood	-2086
▁Air	-2087
▁Squ	-2088
▁far	-2089
▁key	-2090
▁ten	-2091
▁way	-2092
actor	-2093
earch	-2094
ested	-2095
inals	-2096
▁2011	-2097
▁2023	-2098
▁Film	-2099
▁Sant	-2100
▁Wash	-2101
▁free	-2102
▁insp	-2103
▁tour	-2104
▁wife	-2105
▁Black	-2106
▁learn	-2107
▁using	-2108
agement	-2109
▁Malays	-2110
▁letter	-2111
▁version	-2112
▁writing	-2113
▁international	-2114
5-	-2115
ll	-2116
ya	-2117
arl	-2118
icy	-2119
ili	-2120
osh	-2121
pro	-2122
val	-2123
▁Tw	-2124
▁cr	-2125
ideo	-2126
oral	-2127
▁(17	-2128
▁Ann	-2129
▁Don	-2130
▁Mem	-2131
▁Mex	-2132
▁Sab	-2133
istry	-2134
ories	-2135
▁Just	-2136
▁find	-2137
▁grow	-2138
▁line	-2139
▁poss	-2140
▁runs	-2141
acedon	-2142
onnell	-2143
▁India	-2144
▁Islam	-2145
▁Smith	-2146
▁ident	-2147
ministr	-2148
▁France	-2149
▁mother	-2150
▁period	-2151
▁Council	-2152
▁Harvard	-2153
▁control	-2154
▁founded	-2155
▁however	-2156
▁playing	-2157
▁usually	-2158
▁Official	-2159
▁although	-2160
▁different	-2161
▁television	-2162
40	-2163
ma	-2164
sy	-2165
ush	-2166
▁0-	-2167
▁et	-2168
hern	-2169
icle	-2170
ises	-2171
▁Sir	-2172
aying	-2173
eared	-2174
jects	-2175
▁2009	-2176
▁Alex	-2177
▁Land	-2178
▁pres	-2179
▁Franc	-2180
▁Spain	-2181
▁chief	-2182
▁impro	-2183
▁Boston	-2184
▁Center	-2185
▁Walker	-2186
▁killed	-2187
▁making	-2188
▁culture	-2189
▁present	-2190
▁required	-2191
▁Government	-2192
26	-2193
CT	-2194
ha	-2195
▁0	-2196
7),	-2197
oul	-2198
sel	-2199
ump	-2200
▁21	-2201
▁Dr	-2202
▁Sy	-2203
▁sw	-2204
berg	-2205
utch	-2206
work	-2207
▁180	-2208
▁Act	-2209
▁One	-2210
▁Ste	-2211
▁det	-2212
▁fre	-2213
▁rul	-2214
▁ter	-2215
incip	-2216
ishop	-2217
▁2015	-2218
▁Cons	-2219
▁Mass	-2220
▁caus	-2221
▁deal	-2222
▁earn	-2223
▁full	-2224
▁good	-2225
▁pric	-2226
forman	-2227
▁Award	-2228
▁David	-2229
▁belie	-2230
▁light	-2231
▁songs	-2232
▁split	-2233
▁techn	-2234
orthern	-2235
ounting	-2236
ruction	-2237
▁groups	-2238
▁invest	-2239
▁social	-2240
▁reached	-2241
▁campaign	-2242
▁interview	-2243
▁recording	-2244
▁relations	-2245
▁Department	-2246
gr	-2247
of	-2248
1),	-2249
3),	-2250
azz	-2251
ech	-2252
ges	-2253
mit	-2254
ums	-2255
▁My	-2256
▁Ty	-2257
▁br	-2258
▁es	-2259
▁pp	-2260
head	-2261
oker	-2262
olds	-2263
year	-2264
▁Dom	-2265
▁Law	-2266
▁fem	-2267
▁hit	-2268
istic	-2269
venue	-2270
▁Arts	-2271
▁From	-2272
▁Jose	-2273
▁Phra	-2274
▁live	-2275
▁text	-2276
▁view	-2277
etroit	-2278
gether	-2279
▁Anton	-2280
▁While	-2281
▁autom	-2282
▁chang	-2283
▁Indian	-2284
▁Person	-2285
▁Republ	-2286
▁domain	-2287
▁guitar	-2288
▁leader	-2289
▁sculpt	-2290
▁Detroit	-2291
▁Italian	-2292
▁Macedon	-2293
▁written	-2294
ournament	-2295
▁District	-2296
▁election	-2297
▁independ	-2298
▁original	-2299
▁together	-2300
▁Washington	-2301
Ph	-2302
RA	-2303
St	-2304
ua	-2305
▁.	-2306
den	-2307
ead	-2308
enc	-2309
gar	-2310
ham	-2311
ids	-2312
ios	-2313
oke	-2314
rey	-2315
str	-2316
ule	-2317
▁SE	-2318
▁av	-2319
bell	-2320
ighb	-2321
ivil	-2322
nder	-2323
yric	-2324
▁Dem	-2325
▁Moh	-2326
▁Sal	-2327
▁Som	-2328
▁Ult	-2329
▁ear	-2330
▁ill	-2331
▁sol	-2332
aning	-2333
iforn	-2334
illon	-2335
▁Kore	-2336
▁Rome	-2337
▁poet	-2338
▁wood	-2339
ertain	-2340
ograph	-2341
▁Gener	-2342
▁Niger	-2343
▁novel	-2344
ifornia	-2345
imately	-2346
overnor	-2347
▁Bassey	-2348
▁across	-2349
▁critic	-2350
▁further	-2351
▁popular	-2352
▁minister	-2353
▁research	-2354
▁Australia	-2355
▁Committee	-2356
▁completed	-2357
▁production	-2358
flu	-2359
itz	-2360
oted	-2361
oyal	-2362
ploy	-2363
āori	-2364
▁Bib	-2365
▁bre	-2366
acher	-2367
acing	-2368
elebr	-2369
ising	-2370
ither	-2371
▁(201	-2372
▁cour	-2373
▁pain	-2374
▁reve	-2375
ighter	-2376
ources	-2377
▁Court	-2378
▁Wales	-2379
▁board	-2380
▁field	-2381
▁maint	-2382
▁offer	-2383
▁effect	-2384
▁arrived	-2385
▁passeng	-2386
▁appeared	-2387
▁transfer	-2388
▁California	-2389
28	-2390
4-	-2391
ape	-2392
cle	-2393
ota	-2394
▁25	-2395
▁Ol	-2396
▁Up	-2397
icul	-2398
ined	-2399
olic	-2400
onor	-2401
puty	-2402
▁ACT	-2403
▁Bur	-2404
▁Mod	-2405
▁Pat	-2406
▁Sam	-2407
▁abs	-2408
▁fav	-2409
▁pat	-2410
inese	-2411
oming	-2412
▁Beck	-2413
▁Carl	-2414
▁Disc	-2415
▁Leit	-2416
▁Show	-2417
▁Year	-2418
▁army	-2419
▁road	-2420
aching	-2421
▁Singh	-2422
▁broad	-2423
▁never	-2424
▁Porter	-2425
▁Street	-2426
▁celebr	-2427
▁events	-2428
▁neighb	-2429
▁passed	-2430
▁region	-2431
▁tracks	-2432
▁African	-2433
▁municip	-2434
▁directed	-2435
▁director	-2436
22	-2437
MD	-2438
hs	-2439
kn	-2440
ón	-2441
▁z	-2442
ged	-2443
ify	-2444
lym	-2445
uel	-2446
▁4,	-2447
ases	-2448
back	-2449
fact	-2450
onto	-2451
ovde	-2452
sych	-2453
▁Arg	-2454
▁Ros	-2455
▁cor	-2456
▁div	-2457
▁ren	-2458
▁tem	-2459
▁tre	-2460
▁2010	-2461
▁Life	-2462
▁stat	-2463
idence	-2464
▁Chair	-2465
▁Hovde	-2466
▁Mount	-2467
▁Since	-2468
▁cover	-2469
▁seven	-2470
▁defeat	-2471
▁living	-2472
▁Leitrim	-2473
▁Toronto	-2474
▁Canadian	-2475
▁particip	-2476
36	-2477
56	-2478
gy	-2479
ky	-2480
/19	-2481
MDb	-2482
aks	-2483
bec	-2484
oto	-2485
ude	-2486
▁2,	-2487
▁Lu	-2488
▁Ob	-2489
▁Oh	-2490
▁To	-2491
acht	-2492
aper	-2493
ilar	-2494
ults	-2495
ustr	-2496
▁End	-2497
▁Sav	-2498
▁Tim	-2499
▁Tur	-2500
▁Val	-2501
▁anc	-2502
▁put	-2503
▁sit	-2504
▁you	-2505
ators	-2506
lated	-2507
orror	-2508
stand	-2509
▁2007	-2510
▁Camb	-2511
▁Hans	-2512
▁IMDb	-2513
▁Lord	-2514
▁Rock	-2515
▁girl	-2516
▁rail	-2517
iction	-2518
uclear	-2519
▁Parth	-2520
▁Sabah	-2521
▁Super	-2522
▁south	-2523
stitute	-2524
▁Academ	-2525
▁singer	-2526
▁created	-2527
▁reactor	-2528
▁service	-2529
stitution	-2530
▁Nigerian	-2531
▁Phraates	-2532
▁continued	-2533
▁Australian	-2534
▁eventually	-2535
70	-2536
4),	-2537
ada	-2538
ado	-2539
ery	-2540
gin	-2541
iet	-2542
ked	-2543
och	-2544
ona	-2545
uan	-2546
aker	-2547
ello	-2548
iber	-2549
ider	-2550
inct	-2551
oles	-2552
ours	-2553
play	-2554
reme	-2555
▁186	-2556
▁Ant	-2557
▁Pan	-2558
▁Sch	-2559
▁enc	-2560
achus	-2561
imate	-2562
iting	-2563
reaty	-2564
▁2006	-2565
▁Arab	-2566
▁Club	-2567
▁Fore	-2568
▁Serv	-2569
▁case	-2570
▁self	-2571
▁sugg	-2572
▁surv	-2573
▁test	-2574
▁Mason	-2575
▁Māori	-2576
▁Trans	-2577
▁exhib	-2578
▁spent	-2579
▁study	-2580
▁times	-2581
▁total	-2582
▁Avenue	-2583
▁Dillon	-2584
▁Murthi	-2585
▁attend	-2586
▁ground	-2587
▁release	-2588
▁Division	-2589
▁cultural	-2590
▁featured	-2591
▁soldiers	-2592
▁president	-2593
▁department	-2594
▁traditional	-2595
ka	-2596
▁/	-2597
aff	-2598
uls	-2599
▁27	-2600
atch	-2601
atre	-2602
band	-2603
cell	-2604
erve	-2605
iate	-2606
orne	-2607
pire	-2608
rich	-2609
used	-2610
▁Rob	-2611
▁dev	-2612
▁few	-2613
▁get	-2614
▁lim	-2615
▁low	-2616
eated	-2617
iddle	-2618
ultan	-2619
▁Ford	-2620
▁Spec	-2621
▁able	-2622
▁draw	-2623
▁half	-2624
▁mult	-2625
▁once	-2626
▁prin	-2627
ground	-2628
▁Bibli	-2629
▁Georg	-2630
▁White	-2631
▁const	-2632
▁front	-2633
▁influ	-2634
▁month	-2635
▁north	-2636
▁point	-2637
▁regul	-2638
▁Follow	-2639
▁either	-2640
▁produc	-2641
▁recogn	-2642
▁spokes	-2643
▁succeed	-2644
▁victory	-2645
▁reported	-2646
▁Cambridge	-2647
▁Following	-2648
▁administr	-2649
▁Parliament	-2650
▁successful	-2651
▁development	-2652
▁Championship	-2653
):	-2654
30	-2655
32	-2656
FL	-2657
9),	-2658
irm	-2659
ora	-2660
ped	-2661
▁29	-2662
▁Ak	-2663
▁NA	-2664
▁Ot	-2665
burg	-2666
ffer	-2667
ills	-2668
illy	-2669
inus	-2670
ivid	-2671
wick	-2672
▁Ter	-2673
▁deg	-2674
▁inf	-2675
▁ins	-2676
▁see	-2677
atter	-2678
aught	-2679
based	-2680
iance	-2681
isher	-2682
osing	-2683
ready	-2684
▁2017	-2685
▁Hamm	-2686
▁Iran	-2687
▁Road	-2688
▁comb	-2689
▁epis	-2690
▁rock	-2691
▁stop	-2692
▁tags	-2693
lement	-2694
veland	-2695
▁2013,	-2696
▁Grand	-2697
▁Hayes	-2698
▁Inter	-2699
▁creat	-2700
▁eight	-2701
▁force	-2702
▁human	-2703
▁style	-2704
▁taken	-2705
▁Hockey	-2706
▁Museum	-2707
▁murder	-2708
▁others	-2709
▁proper	-2710
▁writer	-2711
▁Chinese	-2712
▁himself	-2713
▁officer	-2714
▁species	-2715
▁working	-2716
▁European	-2717
▁followed	-2718
▁practice	-2719
▁Biography	-2720
▁Cleveland	-2721
▁performan	-2722
▁introduced	-2723
37	-2724
gu	-2725
iy	-2726
–1	-2727
5),	-2728
aur	-2729
edy	-2730
lic	-2731
oid	-2732
unk	-2733
▁3,	-2734
▁31	-2735
▁Ru	-2736
▁bi	-2737
chie	-2738
gage	-2739
here	-2740
inal	-2741
uild	-2742
▁Cru	-2743
▁Day	-2744
▁Del	-2745
▁Sox	-2746
▁doc	-2747
▁fif	-2748
▁job	-2749
▁lic	-2750
▁fund	-2751
▁loss	-2752
▁prem	-2753
selves	-2754
▁2019,	-2755
▁Davis	-2756
▁Great	-2757
▁Notes	-2758
▁coast	-2759
▁peace	-2760
▁press	-2761
▁prior	-2762
▁forced	-2763
▁legisl	-2764
▁Germany	-2765
▁Journal	-2766
▁Russian	-2767
▁already	-2768
▁concern	-2769
▁decided	-2770
▁innings	-2771
▁leading	-2772
▁respons	-2773
▁special	-2774
▁attended	-2775
▁becoming	-2776
▁produced	-2777
▁themselves	-2778
▁tournament	-2779
")	-2780
3-	-2781
86	-2782
-19	-2783
New	-2784
ibr	-2785
ira	-2786
irc	-2787
ras	-2788
ray	-2789
tar	-2790
xas	-2791
▁Ep	-2792
▁Er	-2793
▁Il	-2794
ably	-2795
ells	-2796
esse	-2797
etts	-2798
flin	-2799
ingu	-2800
isco	-2801
rest	-2802
▁Gar	-2803
▁Its	-2804
▁Mif	-2805
▁Tig	-2806
▁hig	-2807
▁squ	-2808
andid	-2809
asing	-2810
ortun	-2811
ought	-2812
uated	-2813
yrics	-2814
▁1970	-2815
▁Asia	-2816
▁Best	-2817
▁Cath	-2818
▁Main	-2819
▁Olym	-2820
▁Tour	-2821
▁aver	-2822
▁conn	-2823
▁date	-2824
▁fore	-2825
▁gave	-2826
▁rank	-2827
▁sect	-2828
▁stri	-2829
▁week	-2830
achine	-2831
atives	-2832
atural	-2833
ension	-2834
etimes	-2835
manent	-2836
▁Hough	-2837
▁Texas	-2838
▁fight	-2839
▁Berlin	-2840
▁Hammel	-2841
▁native	-2842
▁regard	-2843
▁reveal	-2844
▁sister	-2845
▁Fighter	-2846
▁Justice	-2847
▁Mifflin	-2848
▁Profess	-2849
▁Through	-2850
▁Western	-2851
▁allowed	-2852
▁attempt	-2853
▁princip	-2854
▁private	-2855
achusetts	-2856
ification	-2857
▁Connacht	-2858
▁Houghton	-2859
▁involved	-2860
▁Institute	-2861
▁architect	-2862
▁Commission	-2863
▁information	-2864
▁Massachusetts	-2865
ee	-2866
ari	-2867
ems	-2868
olk	-2869
vin	-2870
–17	-2871
▁("	-2872
▁2:	-2873
▁TV	-2874
▁di	-2875
acts	-2876
aint	-2877
ault	-2878
bury	-2879
down	-2880
ergy	-2881
ires	-2882
real	-2883
▁159	-2884
▁App	-2885
▁Cub	-2886
▁Jes	-2887
▁Tak	-2888
▁sil	-2889
▁vol	-2890
iding	-2891
otion	-2892
raman	-2893
▁1919	-2894
▁2022	-2895
▁Cant	-2896
▁Card	-2897
▁Sand	-2898
▁away	-2899
▁east	-2900
▁heat	-2901
etwork	-2902
▁2014,	-2903
▁Asian	-2904
▁Feder	-2905
▁Paris	-2906
▁alleg	-2907
▁areas	-2908
▁examp	-2909
▁noted	-2910
▁owned	-2911
▁sound	-2912
Donnell	-2913
▁Sultan	-2914
▁change	-2915
▁employ	-2916
▁office	-2917
▁proble	-2918
▁stated	-2919
▁Academy	-2920
▁Indones	-2921
▁Society	-2922
▁Special	-2923
▁edition	-2924
▁granted	-2925
▁project	-2926
▁subsequ	-2927
▁Scottish	-2928
▁addition	-2929
▁conquest	-2930
▁Christian	-2931
▁executive	-2932
▁programme	-2933
:1	-2934
BC	-2935
HL	-2936
6),	-2937
elt	-2938
ift	-2939
irt	-2940
kes	-2941
mag	-2942
ows	-2943
uma	-2944
umi	-2945
▁5,	-2946
▁Je	-2947
adhg	-2948
enth	-2949
idge	-2950
otel	-2951
ream	-2952
▁187	-2953
▁Dou	-2954
▁Inc	-2955
▁Lev	-2956
▁Nor	-2957
▁Ram	-2958
▁Rom	-2959
▁Sea	-2960
▁Sol	-2961
▁Tre	-2962
▁cop	-2963
▁dou	-2964
▁ens	-2965
▁jud	-2966
▁mag	-2967
▁rev	-2968
▁typ	-2969
ering	-2970
rying	-2971
▁1960	-2972
▁2019	-2973
▁Some	-2974
▁Stra	-2975
▁adop	-2976
▁bass	-2977
▁come	-2978
▁disp	-2979
▁hous	-2980
▁spir	-2981
stitut	-2982
▁2015,	-2983
▁Dutch	-2984
▁added	-2985
▁bound	-2986
▁close	-2987
▁court	-2988
▁liter	-2989
▁occup	-2990
▁terms	-2991
▁track	-2992
▁Morgan	-2993
▁People	-2994
▁Second	-2995
▁accept	-2996
▁albums	-2997
▁artist	-2998
▁entire	-2999
▁indust	-3000
▁placed	-3001
▁screen	-3002
▁Indians	-3003
▁Richard	-3004
▁Station	-3005
▁meaning	-3006
▁pitcher	-3007
▁similar	-3008
▁Republic	-3009
▁discover	-3010
▁includes	-3011
▁training	-3012
▁countries	-3013
Re	-3014
hu	-3015
zi	-3016
ben	-3017
ils	-3018
lav	-3019
ocr	-3020
ole	-3021
roy	-3022
vey	-3023
–18	-3024
airc	-3025
ateg	-3026
eter	-3027
irth	-3028
most	-3029
ouch	-3030
rael	-3031
rugg	-3032
time	-3033
ving	-3034
writ	-3035
▁Dar	-3036
▁Int	-3037
▁Kil	-3038
▁Sik	-3039
▁Sil	-3040
▁Tod	-3041
▁Win	-3042
▁cut	-3043
▁dam	-3044
▁fig	-3045
▁ide	-3046
▁nom	-3047
▁sch	-3048
ambig	-3049
anded	-3050
arden	-3051
known	-3052
occer	-3053
▁2012	-3054
▁2014	-3055
▁2025	-3056
▁Blue	-3057
▁Four	-3058
▁Jiro	-3059
▁Swed	-3060
▁Town	-3061
▁body	-3062
▁code	-3063
▁coll	-3064
▁trib	-3065
ential	-3066
istics	-3067
▁Books	-3068
▁Holly	-3069
▁Major	-3070
▁Power	-3071
▁Tadhg	-3072
ailable	-3073
▁Battle	-3074
▁Joseph	-3075
▁Singap	-3076
▁associ	-3077
▁econom	-3078
▁health	-3079
▁modern	-3080
▁remain	-3081
▁territ	-3082
▁Develop	-3083
▁awarded	-3084
▁individ	-3085
▁primary	-3086
▁respect	-3087
▁defeated	-3088
▁finished	-3089
▁proposed	-3090
▁Alexander	-3091
▁according	-3092
▁developed	-3093
▁professor	-3094
ambiguation	-3095
▁Homeschool	-3096
▁collection	-3097
▁leadership	-3098
▁Bibliography	-3099
ti	-3100
uh	-3101
–6	-3102
2),	-3103
hem	-3104
osp	-3105
rod	-3106
van	-3107
▁50	-3108
▁Ap	-3109
▁Ec	-3110
▁gl	-3111
▁na	-3112
arks	-3113
atha	-3114
ffic	-3115
iece	-3116
iple	-3117
iron	-3118
ques	-3119
raft	-3120
tham	-3121
▁158	-3122
▁Aed	-3123
▁Cro	-3124
▁Los	-3125
▁Mer	-3126
▁den	-3127
▁dyn	-3128
▁neg	-3129
▁sea	-3130
▁ser	-3131
▁unc	-3132
asion	-3133
azine	-3134
ensus	-3135
ethod	-3136
iring	-3137
▁2021	-3138
▁Capt	-3139
▁Duke	-3140
▁Eric	-3141
▁Hall	-3142
▁Over	-3143
▁Vict	-3144
▁base	-3145
▁bord	-3146
▁less	-3147
▁viol	-3148
ensive	-3149
igious	-3150
ulture	-3151
▁Times	-3152
▁achie	-3153
▁books	-3154
▁crown	-3155
▁mount	-3156
▁naval	-3157
▁psych	-3158
▁smart	-3159
▁video	-3160
ificant	-3161
uilding	-3162
▁Castle	-3163
▁Empire	-3164
▁Secret	-3165
▁little	-3166
▁suffer	-3167
▁therap	-3168
ervation	-3169
▁teacher	-3170
▁Province	-3171
▁experien	-3172
▁register	-3173
▁remained	-3174
▁Singapore	-3175
▁agreement	-3176
▁available	-3177
▁languages	-3178
▁registrar	-3179
▁sometimes	-3180
▁originally	-3181
▁competition	-3182
▁legislation	-3183
▁relationship	-3184
disambiguation	-3185
23	-3186
35	-3187
47	-3188
57	-3189
ali	-3190
asc	-3191
igr	-3192
lyn	-3193
mon	-3194
ois	-3195
usp	-3196
▁Lt	-3197
▁Mz	-3198
▁NC	-3199
▁Óg	-3200
:10.	-3201
abit	-3202
anks	-3203
lier	-3204
onse	-3205
ores	-3206
pson	-3207
▁Ben	-3208
▁Dev	-3209
▁Hel	-3210
▁Jac	-3211
▁Sem	-3212
▁arg	-3213
▁dep	-3214
▁doi	-3215
▁mem	-3216
▁saf	-3217
▁sex	-3218
▁sum	-3219
▁und	-3220
▁ver	-3221
amily	-3222
ansen	-3223
aries	-3224
embly	-3225
ength	-3226
inary	-3227
oring	-3228
urity	-3229
▁2016	-3230
▁Aedh	-3231
▁Cont	-3232
▁Gold	-3233
▁Ohio	-3234
▁Pers	-3235
▁Ship	-3236
▁Tony	-3237
▁hits	-3238
▁manu	-3239
▁room	-3240
▁soon	-3241
▁2023,	-3242
▁2024,	-3243
▁Field	-3244
▁Jesus	-3245
▁Metro	-3246
▁Radio	-3247
▁Swiss	-3248
▁Under	-3249
▁civil	-3250
▁cross	-3251
▁mater	-3252
▁partn	-3253
▁quest	-3254
▁wheel	-3255
▁whose	-3256
▁woman	-3257
▁Bishop	-3258
▁Church	-3259
▁Edward	-3260
▁Flamin	-3261
▁Warren	-3262
▁annual	-3263
▁candid	-3264
▁course	-3265
▁female	-3266
▁police	-3267
▁Despite	-3268
▁Records	-3269
▁founder	-3270
▁largest	-3271
▁provide	-3272
▁Research	-3273
▁revealed	-3274
▁commander	-3275
▁musicians	-3276
▁performed	-3277
▁succeeded	-3278
▁Flamininus	-3279
▁experience	-3280
▁Development	-3281
29	-3282
58	-3283
Ch	-3284
TA	-3285
ao	-3286
go	-3287
ré	-3288
wh	-3289
yt	-3290
aps	-3291
asy	-3292
isi	-3293
lom	-3294
nan	-3295
pan	-3296
raw	-3297
umn	-3298
▁8,	-3299
▁er	-3300
▁my	-3301
ands	-3302
aves	-3303
iled	-3304
oder	-3305
reek	-3306
▁Atl	-3307
▁Jim	-3308
▁Luc	-3309
▁Sub	-3310
▁Sur	-3311
▁imm	-3312
▁mid	-3313
▁pot	-3314
▁pur	-3315
▁sup	-3316
▁via	-3317
abeth	-3318
anies	-3319
arily	-3320
izing	-3321
▁2008	-3322
▁Chen	-3323
▁Hill	-3324
▁Home	-3325
▁Hong	-3326
▁Kang	-3327
▁Rail	-3328
▁Sulu	-3329
▁cost	-3330
▁decl	-3331
▁feel	-3332
▁keep	-3333
▁miss	-3334
rought	-3335
rovers	-3336
▁2012,	-3337
▁2016,	-3338
▁2021,	-3339
▁2022,	-3340
▁Angel	-3341
▁Brook	-3342
▁Krish	-3343
▁Regul	-3344
▁above	-3345
▁absor	-3346
▁accom	-3347
▁chall	-3348
fielder	-3349
▁Treaty	-3350
▁battle	-3351
▁center	-3352
▁issues	-3353
▁online	-3354
▁rights	-3355
▁saying	-3356
▁Further	-3357
▁Theatre	-3358
▁average	-3359
▁conduct	-3360
▁instead	-3361
▁related	-3362
▁serving	-3363
▁subject	-3364
▁Military	-3365
▁contract	-3366
▁currently	-3367
▁standards	-3368
▁Publishing	-3369
08	-3370
II	-3371
LB	-3372
NA	-3373
ye	-3374
}}	-3375
▁{	-3376
bre	-3377
bur	-3378
cri	-3379
ias	-3380
nel	-3381
yer	-3382
▁Do	-3383
▁UK	-3384
alls	-3385
edia	-3386
embi	-3387
hold	-3388
ilot	-3389
like	-3390
ming	-3391
olen	-3392
rang	-3393
rial	-3394
rick	-3395
roll	-3396
west	-3397
▁164	-3398
▁Bob	-3399
▁Cam	-3400
▁ERA	-3401
▁Ham	-3402
▁Lab	-3403
▁Mic	-3404
▁Ret	-3405
▁Way	-3406
▁bur	-3407
▁cal	-3408
▁fun	-3409
▁lif	-3410
appus	-3411
enced	-3412
icles	-3413
orpor	-3414
ource	-3415
▁Army	-3416
▁Gund	-3417
▁Mets	-3418
▁NCIS	-3419
▁Vill	-3420
▁Wild	-3421
▁diss	-3422
▁hard	-3423
▁know	-3424
▁pers	-3425
ifying	-3426
▁2009,	-3427
▁Found	-3428
▁Green	-3429
▁Italy	-3430
▁Jatha	-3431
▁Media	-3432
▁dance	-3433
▁label	-3434
▁lunch	-3435
▁means	-3436
▁miles	-3437
▁schol	-3438
ologist	-3439
ributed	-3440
ultural	-3441
▁Kappus	-3442
▁Master	-3443
▁Mexico	-3444
▁Modern	-3445
▁Mzembi	-3446
▁Review	-3447
▁Social	-3448
▁Straus	-3449
▁Victor	-3450
▁access	-3451
▁assist	-3452
▁depart	-3453
▁fourth	-3454
▁listed	-3455
▁states	-3456
▁Johnson	-3457
▁Machine	-3458
▁Service	-3459
▁Studies	-3460
▁claimed	-3461
▁example	-3462
▁illustr	-3463
▁percent	-3464
▁reserve	-3465
▁seasons	-3466
▁winning	-3467
▁Ministry	-3468
▁Montreal	-3469
▁baseball	-3470
▁location	-3471
▁producer	-3472
▁services	-3473
▁controvers	-3474
▁footballer	-3475
▁independent	-3476
▁significant	-3477
▁championship	-3478
▁Homeschooling	-3479
va	-3480
ão	-3481
ен	-3482
awa	-3483
ban	-3484
cel	-3485
law	-3486
mas	-3487
olf	-3488
oon	-3489
pec	-3490
reg	-3491
rug	-3492
uff	-3493
▁Es	-3494
▁du	-3495
▁lo	-3496
ails	-3497
bert	-3498
ctor	-3499
etic	-3500
ieut	-3501
oute	-3502
rief	-3503
▁10,	-3504
▁15,	-3505
▁Ali	-3506
▁Bal	-3507
▁Big	-3508
▁Dun	-3509
▁Lem	-3510
▁Loc	-3511
▁Sar	-3512
▁Sud	-3513
▁Tok	-3514
▁Tra	-3515
▁You	-3516
▁big	-3517
▁emb	-3518
▁lik	-3519
▁mer	-3520
▁mus	-3521
▁pra	-3522
▁sym	-3523
▁tal	-3524
achel	-3525
alled	-3526
arter	-3527
ilies	-3528
iplom	-3529
leben	-3530
▁1920	-3531
▁2005	-3532
▁Find	-3533
▁Many	-3534
▁happ	-3535
▁prof	-3536
▁sons	-3537
▁subg	-3538
▁walk	-3539
ibrary	-3540
ressed	-3541
▁2025,	-3542
▁Chief	-3543
▁Cross	-3544
▁Later	-3545
▁Prime	-3546
▁Queen	-3547
▁Santa	-3548
▁Three	-3549
▁adapt	-3550
▁chair	-3551
▁colon	-3552
▁drums	-3553
▁grand	-3554
▁hours	-3555
▁indic	-3556
▁media	-3557
▁movie	-3558
▁opera	-3559
▁range	-3560
▁separ	-3561
ilities	-3562
mission	-3563
▁978-0-	-3564
▁Awards	-3565
▁Commun	-3566
▁Martin	-3567
▁Portug	-3568
▁Thomas	-3569
▁editor	-3570
▁method	-3571
▁mostly	-3572
▁points	-3573
icularly	-3574
▁Captain	-3575
▁General	-3576
▁brought	-3577
▁despite	-3578
▁meeting	-3579
▁natural	-3580
▁regular	-3581
▁Malaysia	-3582
▁Memleben	-3583
▁Personal	-3584
▁Southern	-3585
▁believed	-3586
▁complete	-3587
▁features	-3588
▁interest	-3589
▁material	-3590
▁northern	-3591
▁prisoners	-3592
▁historical	-3593
▁passengers	-3594
▁previously	-3595
▁throughout	-3596
Te	-3597
tr	-3598
ait	-3599
ops	-3600
ula	-3601
zil	-3602
▁1.	-3603
▁3:	-3604
▁6,	-3605
▁7,	-3606
▁Po	-3607
aded	-3608
cing	-3609
inet	-3610
reng	-3611
with	-3612
▁But	-3613
▁Gra	-3614
▁Hem	-3615
▁Hor	-3616
▁Pac	-3617
▁Sah	-3618
▁Spe	-3619
▁boy	-3620
▁equ	-3621
▁sem	-3622
▁too	-3623
adium	-3624
elled	-3625
ender	-3626
ously	-3627
riage	-3628
thlet	-3629
unior	-3630
▁2002	-3631
▁Abby	-3632
▁Boek	-3633
▁Book	-3634
▁Earl	-3635
▁Eliz	-3636
▁acqu	-3637
▁laun	-3638
▁look	-3639
▁rule	-3640
▁seen	-3641
▁upon	-3642
▁west	-3643
atform	-3644
idents	-3645
uments	-3646
▁2010,	-3647
▁Brown	-3648
▁advoc	-3649
▁below	-3650
▁clans	-3651
▁youth	-3652
▁Before	-3653
▁Forces	-3654
▁Gunden	-3655
▁Israel	-3656
▁Public	-3657
▁Sports	-3658
▁Square	-3659
▁Volume	-3660
▁arrest	-3661
▁caused	-3662
▁earned	-3663
▁favour	-3664
▁policy	-3665
▁scored	-3666
▁strugg	-3667
▁travel	-3668
pecially	-3669
▁Angeles	-3670
▁Edwards	-3671
▁Kingdom	-3672
▁Science	-3673
▁appears	-3674
▁artists	-3675
▁charter	-3676
▁complex	-3677
▁entered	-3678
▁friends	-3679
▁leaving	-3680
▁mission	-3681
▁nuclear	-3682
▁society	-3683
▁whether	-3684
▁Catholic	-3685
▁Stations	-3686
▁Thompson	-3687
▁allowing	-3688
▁decision	-3689
▁governor	-3690
▁investig	-3691
▁manufact	-3692
▁multiple	-3693
▁promoted	-3694
▁response	-3695
▁southern	-3696
▁Elizabeth	-3697
▁Francisco	-3698
▁initially	-3699
▁supported	-3700
▁municipality	-3701
-0	-3702
24	-3703
80	-3704
88	-3705
FA	-3706
In	-3707
ko	-3708
ür	-3709
ко	-3710
ст	-3711
ais	-3712
cht	-3713
har	-3714
tha	-3715
tis	-3716
uts	-3717
▁CO	-3718
▁Cr	-3719
▁FM	-3720
▁Mr	-3721
▁RA	-3722
▁Um	-3723
agon	-3724
aily	-3725
airs	-3726
amen	-3727
aret	-3728
asan	-3729
clus	-3730
iana	-3731
ilip	-3732
life	-3733
more	-3734
oser	-3735
oved	-3736
teen	-3737
ways	-3738
▁(15	-3739
▁12,	-3740
▁Bay	-3741
▁III	-3742
▁MLB	-3743
▁Mat	-3744
▁Max	-3745
▁Pri	-3746
▁Tal	-3747
▁Top	-3748
▁Vyt	-3749
▁aud	-3750
▁cit	-3751
▁hum	-3752
▁saw	-3753
Phone	-3754
anger	-3755
autas	-3756
burgh	-3757
empor	-3758
ences	-3759
inman	-3760
itter	-3761
light	-3762
▁(196	-3763
▁2004	-3764
▁2018	-3765
▁Cary	-3766
▁Fire	-3767
▁Girl	-3768
▁Kent	-3769
▁Kong	-3770
▁Long	-3771
▁Pier	-3772
▁Rhod	-3773
▁Turn	-3774
▁Writ	-3775
▁feed	-3776
▁fort	-3777
▁hold	-3778
▁love	-3779
▁past	-3780
ancial	-3781
illiam	-3782
▁2018,	-3783
▁Stand	-3784
▁Yoder	-3785
▁actor	-3786
▁behav	-3787
▁black	-3788
▁bring	-3789
▁confl	-3790
▁night	-3791
▁older	-3792
▁stage	-3793
▁think	-3794
▁trade	-3795
estival	-3796
ibility	-3797
ructure	-3798
▁Antony	-3799
▁Argent	-3800
▁Brazil	-3801
▁Centre	-3802
▁Levine	-3803
▁Police	-3804
▁Serena	-3805
▁action	-3806
▁double	-3807
▁except	-3808
▁raised	-3809
▁rather	-3810
▁showed	-3811
▁studio	-3812
▁summer	-3813
▁taking	-3814
ximately	-3815
▁Article	-3816
▁Weinman	-3817
▁actress	-3818
▁college	-3819
▁complet	-3820
▁condens	-3821
▁journal	-3822
▁receive	-3823
▁require	-3824
▁Although	-3825
▁Brooklyn	-3826
▁Football	-3827
▁Vytautas	-3828
▁families	-3829
▁launched	-3830
▁specific	-3831
▁Architect	-3832
▁authority	-3833
▁companies	-3834
▁religious	-3835
▁Production	-3836
▁individual	-3837
▁authorities	-3838
▁particularly	-3839
/.	-3840
25	-3841
46	-3842
An	-3843
IC	-3844
lo	-3845
–3	-3846
.).	-3847
1).	-3848
akh	-3849
aya	-3850
bey	-3851
can	-3852
edi	-3853
ero	-3854
gal	-3855
lay	-3856
mir	-3857
ros	-3858
uer	-3859
uge	-3860
ugh	-3861
▁4:	-3862
▁Ay	-3863
▁If	-3864
▁Ok	-3865
▁Ve	-3866
ager	-3867
hest	-3868
ilos	-3869
king	-3870
oses	-3871
pics	-3872
utes	-3873
▁156	-3874
▁Ach	-3875
▁Aut	-3876
▁Baz	-3877
▁Bor	-3878
▁Cap	-3879
▁Cow	-3880
▁Def	-3881
▁Gur	-3882
▁Joe	-3883
▁Jul	-3884
▁McG	-3885
▁Met	-3886
▁Oak	-3887
▁Syd	-3888
▁Tat	-3889
▁Tit	-3890
▁cou	-3891
▁hub	-3892
▁hun	-3893
▁red	-3894
▁tro	-3895
aging	-3896
anned	-3897
annel	-3898
antic	-3899
claim	-3900
ellig	-3901
enant	-3902
odend	-3903
▁(197	-3904
▁1917	-3905
▁2024	-3906
▁Anth	-3907
▁Down	-3908
▁Inst	-3909
▁Most	-3910
▁Oper	-3911
▁Play	-3912
▁Prim	-3913
▁Shah	-3914
▁arms	-3915
▁coin	-3916
▁data	-3917
▁fire	-3918
▁food	-3919
▁gold	-3920
▁nine	-3921
▁phot	-3922
▁pred	-3923
▁purs	-3924
▁sail	-3925
▁tree	-3926
▁whom	-3927
gariff	-3928
isting	-3929
mitted	-3930
oments	-3931
vement	-3932
writer	-3933
▁(2015	-3934
▁2017,	-3935
▁Croat	-3936
▁Event	-3937
▁Medal	-3938
▁Polit	-3939
▁Print	-3940
▁Stars	-3941
▁Their	-3942
▁asked	-3943
▁clear	-3944
▁films	-3945
▁frequ	-3946
▁gives	-3947
▁least	-3948
▁lived	-3949
▁lower	-3950
▁occur	-3951
▁plays	-3952
▁space	-3953
▁steam	-3954
▁surre	-3955
▁trial	-3956
▁withd	-3957
acional	-3958
alition	-3959
▁Family	-3960
▁Indust	-3961
▁Member	-3962
▁Prison	-3963
▁Ruairc	-3964
▁academ	-3965
▁castle	-3966
▁census	-3967
▁church	-3968
▁degree	-3969
▁formed	-3970
▁itself	-3971
▁lyrics	-3972
▁Austria	-3973
▁Central	-3974
▁Eastern	-3975
▁Georgia	-3976
▁Thunder	-3977
▁baggage	-3978
▁concept	-3979
▁foreign	-3980
▁musical	-3981
▁protect	-3982
▁studied	-3983
▁Armenian	-3984
▁Baseball	-3985
▁Carolina	-3986
▁Williams	-3987
▁challeng	-3988
▁designed	-3989
▁educated	-3990
▁formerly	-3991
▁incorpor	-3992
▁industry	-3993
▁province	-3994
▁Kilgariff	-3995
▁graduated	-3996
▁historian	-3997
▁discovered	-3998
▁communities	-3999
▁subsequently	-4000
▁approximately	-4001
55	-4002
90	-4003
99	-4004
TI	-4005
ca	-4006
ga	-4007
gl	-4008
ox	-4009
ór	-4010
–5	-4011
▁“	-4012
awi	-4013
eds	-4014
ees	-4015
iny	-4016
ket	-4017
ouq	-4018
ova	-4019
ply	-4020
rea	-4021
rum	-4022
▁0.	-4023
▁2.	-4024
▁Sk	-4025
395-	-4026
anna	-4027
arth	-4028
bass	-4029
cycl	-4030
leet	-4031
ning	-4032
oaks	-4033
omer	-4034
rast	-4035
rice	-4036
ugos	-4037
▁Add	-4038
▁How	-4039
▁Ish	-4040
▁Mil	-4041
▁Nug	-4042
▁Ray	-4043
▁Ten	-4044
▁ang	-4045
▁cru	-4046
▁der	-4047
▁env	-4048
▁gar	-4049
▁har	-4050
▁pay	-4051
▁sen	-4052
ental	-4053
estor	-4054
magny	-4055
orial	-4056
ronic	-4057
ruedi	-4058
tario	-4059
udden	-4060
worth	-4061
▁1980	-4062
▁Back	-4063
▁Prot	-4064
▁Roll	-4065
▁Scot	-4066
▁Team	-4067
▁That	-4068
▁bomb	-4069
▁circ	-4070
▁cred	-4071
▁fall	-4072
▁flow	-4073
▁lack	-4074
▁phys	-4075
▁seek	-4076
▁shut	-4077
▁told	-4078
▁vari	-4079
▁vote	-4080
▁want	-4081
igital	-4082
inners	-4083
iverse	-4084
ondiss	-4085
orhood	-4086
rieved	-4087
ulsory	-4088
▁2011,	-4089
▁Broad	-4090
▁Catal	-4091
▁Final	-4092
▁Greek	-4093
▁Human	-4094
▁Korea	-4095
▁Minor	-4096
▁Saint	-4097
▁Sudan	-4098
▁owner	-4099
▁ports	-4100
▁purch	-4101
▁touch	-4102
rection	-4103
▁Andrew	-4104
▁Comics	-4105
▁Democr	-4106
▁Deputy	-4107
▁Farouq	-4108
▁Nugent	-4109
▁confir	-4110
▁format	-4111
▁helped	-4112
▁iPhone	-4113
▁mainly	-4114
▁opened	-4115
▁secret	-4116
▁streng	-4117
▁turned	-4118
ironment	-4119
ribution	-4120
▁Bingham	-4121
▁Ontario	-4122
▁adopted	-4123
▁changes	-4124
▁earlier	-4125
▁islands	-4126
▁letters	-4127
▁outside	-4128
▁therapy	-4129
▁thought	-4130
ieutenant	-4131
itionally	-4132
▁Caroline	-4133
▁Highland	-4134
▁Parthian	-4135
▁attacked	-4136
▁marriage	-4137
▁personal	-4138
▁possible	-4139
▁Hansruedi	-4140
▁Hollyoaks	-4141
▁Accounting	-4142
▁Historical	-4143
▁especially	-4144
▁parliament	-4145
▁understand	-4146
,"	-4147
-8	-4148
84	-4149
ID	-4150
ez	-4151
la	-4152
rd	-4153
uz	-4154
ós	-4155
–4	-4156
▁£	-4157
▁·	-4158
CAA	-4159
aba	-4160
aux	-4161
bed	-4162
emy	-4163
enz	-4164
igo	-4165
lie	-4166
ogs	-4167
oms	-4168
pir	-4169
rig	-4170
ste	-4171
▁37	-4172
▁63	-4173
▁Az	-4174
▁Ev	-4175
▁Gi	-4176
ades	-4177
aith	-4178
atab	-4179
athe	-4180
ayed	-4181
ella	-4182
eman	-4183
ends	-4184
ened	-4185
gypt	-4186
iant	-4187
igen	-4188
inga	-4189
inth	-4190
lits	-4191
opea	-4192
otes	-4193
road	-4194
serv	-4195
tain	-4196
▁13,	-4197
▁160	-4198
▁Abd	-4199
▁Bow	-4200
▁Cad	-4201
▁Dew	-4202
▁Ele	-4203
▁Hun	-4204
▁Les	-4205
▁NFL	-4206
▁Six	-4207
▁Wil	-4208
▁cle	-4209
▁mix	-4210
▁nob	-4211
▁our	-4212
▁ple	-4213
▁rac	-4214
▁reb	-4215
adron	-4216
andon	-4217
ecess	-4218
enice	-4219
ennon	-4220
irgin	-4221
itors	-4222
onent	-4223
uture	-4224
▁1972	-4225
▁1990	-4226
▁2013	-4227
▁Auck	-4228
▁Corn	-4229
▁Cruz	-4230
▁Fort	-4231
▁Gall	-4232
▁Hart	-4233
▁Pres	-4234
▁Rain	-4235
▁Sher	-4236
▁Stan	-4237
▁anal	-4238
▁boat	-4239
▁bran	-4240
▁fail	-4241
▁goal	-4242
▁ille	-4243
▁mand	-4244
▁pump	-4245
ective	-4246
etting	-4247
icular	-4248
ingway	-4249
riopea	-4250
▁2008,	-4251
▁2013.	-4252
▁Board	-4253
▁Child	-4254
▁Egypt	-4255
▁Hotel	-4256
▁Morse	-4257
▁Place	-4258
▁Sahib	-4259
▁Trust	-4260
▁deter	-4261
▁emerg	-4262
▁ended	-4263
▁fifth	-4264
▁lands	-4265
▁lives	-4266
▁numer	-4267
▁premi	-4268
▁price	-4269
▁ramen	-4270
▁serve	-4271
▁speak	-4272
▁white	-4273
atabase	-4274
ositive	-4275
ugoslav	-4276
▁Author	-4277
▁Heello	-4278
▁Quebec	-4279
▁Turner	-4280
▁altern	-4281
▁centre	-4282
▁commit	-4283
▁failed	-4284
▁length	-4285
▁market	-4286
▁months	-4287
▁promin	-4288
▁starts	-4289
▁sudden	-4290
▁titles	-4291
▁winter	-4292
emporary	-4293
▁Boekman	-4294
▁council	-4295
▁offered	-4296
▁results	-4297
▁scholar	-4298
▁settled	-4299
▁Auckland	-4300
▁Nacional	-4301
▁Olympics	-4302
▁document	-4303
▁platform	-4304
▁referred	-4305
▁separate	-4306
▁starting	-4307
▁subgroup	-4308
▁Hemingway	-4309
▁Indonesia	-4310
▁conquests	-4311
▁remaining	-4312
▁management	-4313
▁supporting	-4314
▁technology	-4315
▁translated	-4316
▁appearances	-4317
▁homeschooled	-4318
▁neighborhood	-4319
▁registration	-4320
',	-4321
En	-4322
SA	-4323
SO	-4324
oo	-4325
ady	-4326
alz	-4327
ask	-4328
bon	-4329
dam	-4330
ela	-4331
gen	-4332
hew	-4333
joy	-4334
olo	-4335
oyd	-4336
rin	-4337
ura	-4338
▁Ur	-4339
▁aw	-4340
abor	-4341
also	-4342
ando	-4343
anga	-4344
atis	-4345
bour	-4346
edic	-4347
edom	-4348
emic	-4349
enes	-4350
falz	-4351
grad	-4352
hnic	-4353
ites	-4354
oint	-4355
onym	-4356
pper	-4357
quar	-4358
rone	-4359
réal	-4360
tegr	-4361
uals	-4362
uate	-4363
▁Anc	-4364
▁Att	-4365
▁Bul	-4366
▁Hom	-4367
▁Jew	-4368
▁Lar	-4369
▁Mir	-4370
▁Mot	-4371
▁Pet	-4372
▁Rad	-4373
▁Tan	-4374
▁Tri	-4375
▁Wal	-4376
▁asp	-4377
▁cho	-4378
▁don	-4379
▁esc	-4380
▁mot	-4381
▁pod	-4382
▁ult	-4383
▁van	-4384
aring	-4385
ching	-4386
eller	-4387
icult	-4388
rance	-4389
▁1997	-4390
▁Brom	-4391
▁Clan	-4392
▁Crit	-4393
▁Dani	-4394
▁Game	-4395
▁Head	-4396
▁Khal	-4397
▁Lake	-4398
▁More	-4399
▁Open	-4400
▁Peru	-4401
▁Taus	-4402
▁crew	-4403
▁exch	-4404
▁felt	-4405
▁folk	-4406
▁mass	-4407
▁meet	-4408
▁plan	-4409
▁purp	-4410
▁sens	-4411
▁size	-4412
▁wild	-4413
antasy	-4414
cyclop	-4415
jected	-4416
▁(2020	-4417
▁2006,	-4418
▁2021.	-4419
▁Baron	-4420
▁Bazán	-4421
▁Ginga	-4422
▁Legal	-4423
▁Lemke	-4424
▁Simon	-4425
▁Sound	-4426
▁birth	-4427
▁charg	-4428
▁exped	-4429
▁extra	-4430
▁minim	-4431
▁negot	-4432
▁river	-4433
▁ships	-4434
▁trees	-4435
▁yards	-4436
ecution	-4437
ictures	-4438
igenous	-4439
ketball	-4440
▁Bytham	-4441
▁Columb	-4442
▁Senate	-4443
▁Summer	-4444
▁belong	-4445
▁cities	-4446
▁comedy	-4447
▁famous	-4448
▁latter	-4449
▁master	-4450
▁recent	-4451
▁status	-4452
▁temper	-4453
▁trying	-4454
▁wanted	-4455
▁Islamic	-4456
▁Mexican	-4457
▁Moments	-4458
▁Russell	-4459
▁address	-4460
▁alleged	-4461
▁capital	-4462
▁collect	-4463
▁eastern	-4464
▁highest	-4465
▁license	-4466
▁reasons	-4467
▁records	-4468
▁strateg	-4469
▁towards	-4470
▁workers	-4471
urrection	-4472
▁Archived	-4473
▁Chairman	-4474
▁Montréal	-4475
▁Ultraman	-4476
▁accepted	-4477
▁consists	-4478
▁contains	-4479
▁critique	-4480
▁distinct	-4481
▁district	-4482
▁increase	-4483
▁musician	-4484
▁positive	-4485
▁problems	-4486
▁programs	-4487
▁provided	-4488
▁surround	-4489
▁Christmas	-4490
▁Malaysian	-4491
▁Montmagny	-4492
▁Sultanate	-4493
▁arrondiss	-4494
▁candidate	-4495
▁committee	-4496
▁entertain	-4497
▁returning	-4498
▁sculpture	-4499
▁Macedonian	-4500
▁Management	-4501
▁associated	-4502
▁basketball	-4503
▁performance	-4504
▁represented	-4505
21	-4506
53	-4507
Ar	-4508
dr	-4509
.),	-4510
Don	-4511
acc	-4512
aro	-4513
aug	-4514
fit	-4515
ika	-4516
mes	-4517
org	-4518
rik	-4519
rol	-4520
wan	-4521
win	-4522
yal	-4523
▁3.	-4524
▁9,	-4525
▁OS	-4526
▁fr	-4527
▁op	-4528
Amer	-4529
aped	-4530
atin	-4531
duce	-4532
erem	-4533
iano	-4534
ilst	-4535
ohom	-4536
olid	-4537
omet	-4538
pton	-4539
rait	-4540
thul	-4541
unes	-4542
well	-4543
▁23,	-4544
▁24,	-4545
▁300	-4546
▁Cla	-4547
▁Cus	-4548
▁ISS	-4549
▁Jos	-4550
▁Mas	-4551
▁McC	-4552
▁McK	-4553
▁Mos	-4554
▁Two	-4555
▁enl	-4556
▁für	-4557
▁got	-4558
▁hus	-4559
▁rad	-4560
▁wor	-4561
Besse	-4562
acity	-4563
obile	-4564
osure	-4565
outhe	-4566
romah	-4567
upper	-4568
verse	-4569
▁Beng	-4570
▁Fred	-4571
▁Jack	-4572
▁Penn	-4573
▁diff	-4574
▁fled	-4575
▁gall	-4576
▁jinn	-4577
▁laws	-4578
▁resc	-4579
▁susp	-4580
▁turb	-4581
▁unit	-4582
isions	-4583
ithuan	-4584
orning	-4585
thulhu	-4586
▁(2010	-4587
▁2012.	-4588
▁2019.	-4589
▁Among	-4590
▁Athen	-4591
▁Coast	-4592
▁Enter	-4593
▁Filip	-4594
▁Ishim	-4595
▁Liber	-4596
▁Plant	-4597
▁Royal	-4598
▁Shink	-4599
▁basis	-4600
▁block	-4601
▁cohom	-4602
▁feder	-4603
▁forms	-4604
▁genoc	-4605
▁keybo	-4606
▁leave	-4607
▁makes	-4608
▁scene	-4609
▁treat	-4610
▁twice	-4611
Rourkes	-4612
William	-4613
ability	-4614
atively	-4615
ilation	-4616
olution	-4617
▁0-395-	-4618
▁Athlet	-4619
▁Corpor	-4620
▁Direct	-4621
▁Intern	-4622
▁Knight	-4623
▁Romans	-4624
▁Studio	-4625
▁ancest	-4626
▁behind	-4627
▁closed	-4628
▁deputy	-4629
▁diplom	-4630
▁encour	-4631
▁highly	-4632
▁issued	-4633
▁moving	-4634
▁nature	-4635
▁parish	-4636
▁senior	-4637
▁splits	-4638
▁strong	-4639
▁troops	-4640
▁wheels	-4641
▁Another	-4642
▁Islands	-4643
▁Railway	-4644
▁Studios	-4645
▁Supreme	-4646
▁central	-4647
▁contest	-4648
▁deliver	-4649
▁destroy	-4650
▁discuss	-4651
▁husband	-4652
▁largely	-4653
▁limited	-4654
▁listing	-4655
▁minutes	-4656
▁monitor	-4657
▁ordered	-4658
▁parties	-4659
▁podcast	-4660
▁railway	-4661
inguished	-4662
▁Atlantic	-4663
▁Beckford	-4664
▁Northern	-4665
▁Scotland	-4666
▁competed	-4667
▁electric	-4668
▁episodes	-4669
▁operated	-4670
▁replaced	-4671
▁teaching	-4672
▁Retrieved	-4673
▁attention	-4674
▁broadcast	-4675
▁commanded	-4676
▁confirmed	-4677
▁establish	-4678
▁increased	-4679
▁residents	-4680
▁territory	-4681
▁typically	-4682
▁Conference	-4683
▁Federation	-4684
▁Shinkansen	-4685
▁accounting	-4686
▁activities	-4687
▁cohomology	-4688
▁commission	-4689
▁exhibition	-4690
▁outfielder	-4691
▁organization	-4692
2-	-4693
48	-4694
BA	-4695
BS	-4696
FC	-4697
ba	-4698
do	-4699
▁о	-4700
14)	-4701
aga	-4702
alg	-4703
amo	-4704
ano	-4705
esi	-4706
ila	-4707
ita	-4708
ser	-4709
▁40	-4710
▁5:	-4711
▁60	-4712
▁Bh	-4713
▁Ra	-4714
▁ge	-4715
▁mi	-4716
▁mm	-4717
▁rh	-4718
apaj	-4719
bast	-4720
fort	-4721
hand	-4722
hein	-4723
ista	-4724
lete	-4725
mier	-4726
nall	-4727
olit	-4728
oper	-4729
orde	-4730
rian	-4731
tsch	-4732
ully	-4733
ysis	-4734
–200	-4735
▁Bet	-4736
▁God	-4737
▁Kur	-4738
▁Lud	-4739
▁Mov	-4740
▁Mun	-4741
▁Pit	-4742
▁Rog	-4743
▁aim	-4744
▁gra	-4745
▁gre	-4746
▁inj	-4747
▁kil	-4748
▁ris	-4749
▁tim	-4750
aling	-4751
eland	-4752
ewart	-4753
illes	-4754
inner	-4755
itude	-4756
mouth	-4757
olian	-4758
oples	-4759
orate	-4760
ricul	-4761
water	-4762
▁1918	-4763
▁1950	-4764
▁1982	-4765
▁1999	-4766
▁Buck	-4767
▁Jane	-4768
▁Kota	-4769
▁NCAA	-4770
▁Nath	-4771
▁Navy	-4772
▁Sikh	-4773
▁Star	-4774
▁Step	-4775
▁Tenn	-4776
▁cogn	-4777
▁elim	-4778
▁kind	-4779
▁meas	-4780
▁muse	-4781
▁says	-4782
▁send	-4783
▁soap	-4784
▁vess	-4785
ession	-4786
ething	-4787
former	-4788
▁(2018	-4789
▁Crown	-4790
▁Cusco	-4791
▁Earth	-4792
▁Karen	-4793
▁Naval	-4794
▁Right	-4795
▁Track	-4796
▁Train	-4797
▁Young	-4798
▁agric	-4799
▁brief	-4800
▁disco	-4801
▁initi	-4802
▁joint	-4803
▁medal	-4804
▁minor	-4805
▁today	-4806
▁upper	-4807
▁users	-4808
▁value	-4809
ampions	-4810
ecutive	-4811
elected	-4812
mediate	-4813
olished	-4814
▁Carlos	-4815
▁Dromah	-4816
▁Korean	-4817
▁Little	-4818
▁Virgin	-4819
▁better	-4820
▁claims	-4821
▁discip	-4822
▁inning	-4823
▁nearby	-4824
▁philos	-4825
▁plants	-4826
▁ranked	-4827
▁rebell	-4828
▁serves	-4829
▁simply	-4830
▁spread	-4831
▁theory	-4832
▁transl	-4833
▁Krishna	-4834
▁Municip	-4835
▁ancient	-4836
▁changed	-4837
▁comment	-4838
▁divided	-4839
▁engines	-4840
▁getting	-4841
▁herself	-4842
▁matches	-4843
▁network	-4844
▁opening	-4845
▁retired	-4846
▁serious	-4847
▁student	-4848
▁younger	-4849
elligence	-4850
▁Filipino	-4851
▁Historic	-4852
▁Yugoslav	-4853
▁arrested	-4854
▁brothers	-4855
▁exchange	-4856
▁magazine	-4857
▁mountain	-4858
▁question	-4859
▁standard	-4860
▁Professor	-4861
▁Secretary	-4862
▁beginning	-4863
▁suggested	-4864
▁Background	-4865
▁additional	-4866
▁attendance	-4867
▁completely	-4868
▁compulsory	-4869
▁environment	-4870
▁publication	-4871
▁Presidential	-4872
▁Resurrection	-4873
▁entertainment	-4874
▁arrondissement	-4875
-1	-4876
31	-4877
59	-4878
67	-4879
85	-4880
94	-4881
BI	-4882
Ed	-4883
Sh	-4884
ūg	-4885
2).	-4886
aev	-4887
ala	-4888
aru	-4889
bot	-4890
hul	-4891
ima	-4892
ker	-4893
lar	-4894
now	-4895
pts	-4896
ulf	-4897
▁77	-4898
▁Kö	-4899
▁MP	-4900
▁Ni	-4901
▁SI	-4902
▁Us	-4903
▁cy	-4904
▁ve	-4905
Sama	-4906
Team	-4907
ador	-4908
alle	-4909
asts	-4910
avan	-4911
ears	-4912
ibly	-4913
lers	-4914
merc	-4915
omed	-4916
umer	-4917
uter	-4918
▁11,	-4919
▁175	-4920
▁177	-4921
▁25,	-4922
▁Ara	-4923
▁Bat	-4924
▁Dil	-4925
▁Est	-4926
▁Exp	-4927
▁Hur	-4928
▁Mae	-4929
▁Mel	-4930
▁Men	-4931
▁NAS	-4932
▁Obl	-4933
▁Rel	-4934
▁Ren	-4935
▁Sin	-4936
▁adj	-4937
▁arm	-4938
▁cat	-4939
▁inh	-4940
▁mut	-4941
▁opt	-4942
▁pet	-4943
Gener	-4944
astic	-4945
avily	-4946
chest	-4947
craft	-4948
downs	-4949
green	-4950
hulst	-4951
icide	-4952
ighth	-4953
illed	-4954
ilton	-4955
opher	-4956
oured	-4957
right	-4958
shire	-4959
thing	-4960
thiop	-4961
umber	-4962
usual	-4963
▁(190	-4964
▁1994	-4965
▁1998	-4966
▁Bank	-4967
▁Barb	-4968
▁Bren	-4969
▁Cinc	-4970
▁Each	-4971
▁Garc	-4972
▁Gina	-4973
▁Good	-4974
▁Gran	-4975
▁ISSN	-4976
▁Jean	-4977
▁Marc	-4978
▁Marg	-4979
▁Matt	-4980
▁Race	-4981
▁Song	-4982
▁Tosh	-4983
▁Turk	-4984
▁aged	-4985
▁care	-4986
▁conv	-4987
▁coun	-4988
▁dark	-4989
▁deep	-4990
▁done	-4991
▁elig	-4992
▁firm	-4993
▁goes	-4994
▁hero	-4995
▁move	-4996
▁page	-4997
▁rare	-4998
▁surf	-4999
▁symb	-5000
▁thus	-5001
▁uses	-5002
Reilly	-5003
ancing	-5004
apajós	-5005
iences	-5006
imated	-5007
innati	-5008
irates	-5009
▁(2016	-5010
▁(2017	-5011
▁1998,	-5012
▁2003,	-5013
▁Allen	-5014
▁Cantú	-5015
▁Fried	-5016
▁Grant	-5017
▁Hines	-5018
▁Maria	-5019
▁Order	-5020
▁Organ	-5021
▁Rhein	-5022
▁Scots	-5023
▁Spect	-5024
▁cerem	-5025
▁check	-5026
▁coach	-5027
▁dynam	-5028
▁girls	-5029
▁heavy	-5030
▁names	-5031
▁needs	-5032
▁parts	-5033
▁raise	-5034
▁reach	-5035
▁route	-5036
▁spoke	-5037
▁tells	-5038
▁whole	-5039
isation	-5040
vention	-5041
▁Calico	-5042
▁Cowart	-5043
▁Junior	-5044
▁Labour	-5045
▁Michel	-5046
▁Oblast	-5047
▁Savile	-5048
▁Sebast	-5049
▁Soccer	-5050
▁Sydney	-5051
▁Tausūg	-5052
▁Ulrich	-5053
▁Walter	-5054
▁active	-5055
▁border	-5056
▁choice	-5057
▁conver	-5058
▁couple	-5059
▁denied	-5060
▁fellow	-5061
▁giving	-5062
▁houses	-5063
▁inform	-5064
▁lifest	-5065
▁longer	-5066
▁minute	-5067
▁negoti	-5068
▁places	-5069
▁poetry	-5070
▁safety	-5071
▁square	-5072
▁things	-5073
American	-5074
Williams	-5075
cription	-5076
▁Driopea	-5077
▁Lithuan	-5078
▁Pacific	-5079
▁Premier	-5080
▁Somatic	-5081
▁Stephen	-5082
▁Stewart	-5083
▁Wayback	-5084
▁certain	-5085
▁episode	-5086
▁feature	-5087
▁federal	-5088
▁growing	-5089
▁players	-5090
▁praised	-5091
▁reflect	-5092
▁western	-5093
▁Bromberg	-5094
▁Business	-5095
▁Campbell	-5096
▁Festival	-5097
▁Governor	-5098
▁Register	-5099
▁Verhulst	-5100
▁accident	-5101
▁acquired	-5102
▁analysis	-5103
▁conflict	-5104
▁continue	-5105
▁creating	-5106
▁movement	-5107
▁numerous	-5108
▁occurred	-5109
▁projects	-5110
▁security	-5111
▁subjects	-5112
▁suffered	-5113
▁Dromahair	-5114
▁attempted	-5115
▁buildings	-5116
▁coalition	-5117
▁conducted	-5118
▁construct	-5119
▁criticism	-5120
▁departure	-5121
▁generally	-5122
▁resulting	-5123
▁Cincinnati	-5124
▁Regulatory	-5125
▁conference	-5126
▁indigenous	-5127
▁officially	-5128
▁particular	-5129
▁responsible	-5130
▁respectively	-5131
▁successfully	-5132
.)	-5133
52	-5134
60	-5135
96	-5136
98	-5137
Al	-5138
CL	-5139
FM	-5140
NP	-5141
RC	-5142
Sp	-5143
Th	-5144
dw	-5145
ht	-5146
kh	-5147
vo	-5148
wa	-5149
yo	-5150
zz	-5151
ée	-5152
én	-5153
ла	-5154
3).	-5155
Man	-5156
add	-5157
aka	-5158
ctu	-5159
fin	-5160
hna	-5161
ipe	-5162
iqu	-5163
oln	-5164
ols	-5165
rem	-5166
riz	-5167
tic	-5168
uns	-5169
unt	-5170
usa	-5171
▁Eb	-5172
▁Jo	-5173
▁Of	-5174
▁Vi	-5175
▁WT	-5176
▁vo	-5177
anda	-5178
anis	-5179
avia	-5180
bean	-5181
elve	-5182
enti	-5183
icks	-5184
idae	-5185
lied	-5186
oney	-5187
raig	-5188
rier	-5189
ript	-5190
uilt	-5191
uing	-5192
umed	-5193
ummy	-5194
zumi	-5195
–202	-5196
▁...	-5197
▁16,	-5198
▁Bab	-5199
▁Bag	-5200
▁Dub	-5201
▁Eat	-5202
▁Eps	-5203
▁Hik	-5204
▁Jan	-5205
▁Lag	-5206
▁Neg	-5207
▁RBI	-5208
▁Sid	-5209
▁Via	-5210
▁Wid	-5211
▁Zim	-5212
▁lib	-5213
▁lot	-5214
▁mir	-5215
▁nar	-5216
▁pen	-5217
▁wit	-5218
Conor	-5219
Pfalz	-5220
anced	-5221
ether	-5222
house	-5223
lease	-5224
lying	-5225
oster	-5226
overs	-5227
rison	-5228
▁1930	-5229
▁Anna	-5230
▁Born	-5231
▁Both	-5232
▁Form	-5233
▁Grow	-5234
▁Jazz	-5235
▁Linc	-5236
▁Line	-5237
▁Live	-5238
▁Minn	-5239
▁Prog	-5240
▁Rand	-5241
▁Rece	-5242
▁Wars	-5243
▁arts	-5244
▁beat	-5245
▁cars	-5246
▁cust	-5247
▁kept	-5248
▁migr	-5249
▁path	-5250
▁rear	-5251
▁spot	-5252
▁stre	-5253
▁targ	-5254
▁trav	-5255
▁word	-5256
abinet	-5257
cester	-5258
ermont	-5259
ibbean	-5260
ichler	-5261
perial	-5262
picius	-5263
teenth	-5264
▁2011.	-5265
▁2015.	-5266
▁2020,	-5267
▁2020.	-5268
▁2025.	-5269
▁Borne	-5270
▁Chris	-5271
▁Death	-5272
▁Force	-5273
▁Games	-5274
▁Jacob	-5275
▁Jones	-5276
▁Pitts	-5277
▁Stone	-5278
▁Tenvi	-5279
▁break	-5280
▁enemy	-5281
▁habit	-5282
▁inaug	-5283
▁issue	-5284
▁lords	-5285
▁mayor	-5286
▁newly	-5287
▁reput	-5288
▁royal	-5289
▁ruled	-5290
▁sched	-5291
▁shown	-5292
▁sides	-5293
▁sport	-5294
▁staff	-5295
▁thous	-5296
▁vocal	-5297
endants	-5298
ocation	-5299
riculum	-5300
▁Forest	-5301
▁Khalaj	-5302
▁Legisl	-5303
▁Middle	-5304
▁Monter	-5305
▁Silver	-5306
▁System	-5307
▁Venice	-5308
▁acting	-5309
▁adding	-5310
▁agreed	-5311
▁almost	-5312
▁applic	-5313
▁buried	-5314
▁ethnic	-5315
▁fought	-5316
▁future	-5317
▁garden	-5318
▁hosted	-5319
▁impact	-5320
▁listen	-5321
▁losing	-5322
▁middle	-5323
▁nation	-5324
▁racing	-5325
▁sailed	-5326
▁scient	-5327
▁sector	-5328
▁source	-5329
▁spirit	-5330
▁yellow	-5331
odendron	-5332
quarters	-5333
▁Brennan	-5334
▁Channel	-5335
▁Cthulhu	-5336
▁Domnall	-5337
▁Francis	-5338
▁Library	-5339
▁Maezumi	-5340
▁Tapajós	-5341
▁abandon	-5342
▁actions	-5343
▁assault	-5344
▁carried	-5345
▁fishing	-5346
▁mention	-5347
▁notable	-5348
▁prevent	-5349
▁sources	-5350
▁systems	-5351
▁Augustus	-5352
▁Building	-5353
▁Columbia	-5354
▁Encyclop	-5355
▁Margaret	-5356
▁Portugal	-5357
▁Squadron	-5358
▁attached	-5359
▁capacity	-5360
▁commonly	-5361
▁composer	-5362
▁consider	-5363
▁declared	-5364
▁division	-5365
▁elements	-5366
▁expanded	-5367
▁facility	-5368
▁genocide	-5369
▁invasion	-5370
▁selected	-5371
▁Cardinals	-5372
▁Reception	-5373
▁Rheinland	-5374
▁Standards	-5375
▁Sulpicius	-5376
▁difficult	-5377
▁lifestyle	-5378
▁municipal	-5379
▁passenger	-5380
▁permanent	-5381
▁primarily	-5382
▁storyline	-5383
▁transport	-5384
stitutional	-5385
▁Foundation	-5386
▁electronic	-5387
▁monitoring	-5388
▁touchdowns	-5389
▁partnership	-5390
▁temperature	-5391
▁contemporary	-5392
▁performances	-5393
▁administrative	-5394
)"	-5395
);	-5396
45	-5397
95	-5398
97	-5399
DC	-5400
ux	-5401
на	-5402
-18	-5403
aja	-5404
ato	-5405
awn	-5406
boh	-5407
ibn	-5408
idh	-5409
inh	-5410
ião	-5411
oir	-5412
oya	-5413
ulp	-5414
▁36	-5415
▁64	-5416
▁CD	-5417
▁Di	-5418
▁Gh	-5419
▁Jr	-5420
▁Ts	-5421
Dell	-5422
aden	-5423
aked	-5424
aran	-5425
ares	-5426
feld	-5427
icut	-5428
igan	-5429
ione	-5430
mann	-5431
miss	-5432
mond	-5433
olph	-5434
othe	-5435
oust	-5436
pool	-5437
rees	-5438
rock	-5439
stop	-5440
tole	-5441
urer	-5442
▁18,	-5443
▁26,	-5444
▁Aud	-5445
▁BBC	-5446
▁Bec	-5447
▁Dal	-5448
▁Eth	-5449
▁Get	-5450
▁Haw	-5451
▁Inn	-5452
▁Jam	-5453
▁Jon	-5454
▁Nic	-5455
▁Old	-5456
▁Out	-5457
▁Pak	-5458
▁Pas	-5459
▁Rev	-5460
▁Sac	-5461
▁Sug	-5462
▁Tam	-5463
▁Tem	-5464
▁Vis	-5465
▁cam	-5466
▁dro	-5467
▁dut	-5468
▁fix	-5469
▁ibn	-5470
▁sie	-5471
▁tru	-5472
▁uns	-5473
▁von	-5474
▁wid	-5475
▁yet	-5476
acent	-5477
agues	-5478
ammad	-5479
arian	-5480
aters	-5481
cious	-5482
endar	-5483
iency	-5484
iment	-5485
inson	-5486
olved	-5487
onder	-5488
ordin	-5489
ottom	-5490
rants	-5491
scape	-5492
style	-5493
▁1904	-5494
▁2001	-5495
▁2003	-5496
▁Anne	-5497
▁Ariz	-5498
▁Beat	-5499
▁Brad	-5500
▁Clif	-5501
▁Cole	-5502
▁Dick	-5503
▁Hein	-5504
▁José	-5505
▁Karl	-5506
▁Kenn	-5507
▁Kirt	-5508
▁Love	-5509
▁Mers	-5510
▁Post	-5511
▁Week	-5512
▁Yong	-5513
▁cant	-5514
▁give	-5515
▁male	-5516
▁mess	-5517
▁pick	-5518
▁pros	-5519
▁rate	-5520
▁rein	-5521
▁stor	-5522
▁talk	-5523
▁vent	-5524
▁wear	-5525
▁wind	-5526
anning	-5527
ansion	-5528
ellect	-5529
endall	-5530
friend	-5531
incial	-5532
origin	-5533
ounded	-5534
ration	-5535
umatic	-5536
urname	-5537
▁Again	-5538
▁Cadby	-5539
▁Colle	-5540
▁Devon	-5541
▁Elect	-5542
▁Front	-5543
▁Kevin	-5544
▁Larry	-5545
▁Moham	-5546
▁Popul	-5547
▁Ptole	-5548
▁Upper	-5549
▁Voice	-5550
▁Years	-5551
▁Youth	-5552
▁acres	-5553
▁beaut	-5554
▁calls	-5555
▁effic	-5556
▁faith	-5557
▁going	-5558
▁inner	-5559
▁loyal	-5560
▁match	-5561
▁might	-5562
▁money	-5563
▁newsp	-5564
▁notes	-5565
▁plate	-5566
▁poems	-5567
▁quick	-5568
▁roles	-5569
▁shows	-5570
▁stars	-5571
▁storm	-5572
▁units	-5573
▁votes	-5574
▁write	-5575
chestra	-5576
claimed	-5577
itation	-5578
itimate	-5579
riminal	-5580
▁Associ	-5581
▁Borneo	-5582
▁Bridge	-5583
▁Curtis	-5584
▁Design	-5585
▁Ethiop	-5586
▁García	-5587
▁Madras	-5588
▁Record	-5589
▁Robins	-5590
▁Russia	-5591
▁Sweden	-5592
▁Turkey	-5593
▁Valley	-5594
▁agency	-5595
▁always	-5596
▁broadc	-5597
▁driven	-5598
▁estate	-5599
▁flight	-5600
▁horror	-5601
▁nearly	-5602
▁object	-5603
▁relief	-5604
▁scenes	-5605
▁strike	-5606
▁supply	-5607
▁throne	-5608
▁whilst	-5609
▁Arizona	-5610
▁Because	-5611
▁Brother	-5612
▁Campisi	-5613
▁Eichler	-5614
▁Findlay	-5615
▁Lincoln	-5616
▁Nations	-5617
▁Stadium	-5618
▁Uthmann	-5619
▁concert	-5620
▁details	-5621
▁factory	-5622
▁follows	-5623
▁greater	-5624
▁illegal	-5625
▁managed	-5626
▁promote	-5627
▁refused	-5628
▁running	-5629
▁singles	-5630
▁traffic	-5631
▁Assembly	-5632
▁Clifford	-5633
▁Imperial	-5634
▁Internet	-5635
▁Mountain	-5636
▁academic	-5637
▁assigned	-5638
▁behavior	-5639
▁chairman	-5640
▁colonial	-5641
▁combined	-5642
▁employed	-5643
▁evidence	-5644
▁incident	-5645
▁intended	-5646
▁opportun	-5647
▁painting	-5648
▁property	-5649
▁regarded	-5650
▁settlers	-5651
▁Argentina	-5652
▁Authority	-5653
▁Brazilian	-5654
▁Interview	-5655
▁Mountains	-5656
▁Personnel	-5657
▁Represent	-5658
▁Sanderson	-5659
▁Sebastião	-5660
▁destroyed	-5661
▁financial	-5662
▁implement	-5663
▁keyboards	-5664
▁neighbour	-5665
▁organized	-5666
▁principal	-5667
▁situation	-5668
▁therefore	-5669
▁Democratic	-5670
▁Industrial	-5671
▁appearance	-5672
▁characters	-5673
▁containing	-5674
▁expedition	-5675
▁increasing	-5676
▁maintained	-5677
▁opposition	-5678
▁registered	-5679
▁statistics	-5680
▁ultimately	-5681
▁Description	-5682
▁alternative	-5683
▁transferred	-5684
▁negotiations	-5685
▁representing	-5686
89	-5687
CO	-5688
LA	-5689
TV	-5690
VD	-5691
uf	-5692
xi	-5693
zy	-5694
но	-5695
▁:	-5696
▁Á	-5697
0),	-5698
00,	-5699
4).	-5700
500	-5701
VID	-5702
WHL	-5703
ads	-5704
aly	-5705
amy	-5706
asi	-5707
atu	-5708
con	-5709
des	-5710
hat	-5711
hit	-5712
ibh	-5713
izz	-5714
lem	-5715
lli	-5716
oni	-5717
rec	-5718
–14	-5719
–15	-5720
▁5.	-5721
▁70	-5722
▁Av	-5723
▁Fe	-5724
▁Kl	-5725
▁Ko	-5726
▁Mu	-5727
▁Os	-5728
▁PT	-5729
▁Uk	-5730
▁Ut	-5731
▁ap	-5732
▁pi	-5733
▁ty	-5734
▁{\	-5735
aire	-5736
alks	-5737
anao	-5738
ancy	-5739
ardo	-5740
arta	-5741
atra	-5742
elis	-5743
glas	-5744
iang	-5745
ifer	-5746
igal	-5747
isan	-5748
izes	-5749
lies	-5750
math	-5751
ndez	-5752
olis	-5753
otia	-5754
outs	-5755
pped	-5756
publ	-5757
rane	-5758
reck	-5759
then	-5760
wide	-5761
▁(0.	-5762
▁14,	-5763
▁19,	-5764
▁22,	-5765
▁30,	-5766
▁Abe	-5767
▁Arm	-5768
▁DVD	-5769
▁Dan	-5770
▁Den	-5771
▁Due	-5772
▁Fre	-5773
▁Guy	-5774
▁Kar	-5775
▁Lis	-5776
▁Mak	-5777
▁Mid	-5778
▁Nik	-5779
▁Non	-5780
▁Now	-5781
▁Ori	-5782
▁Ott	-5783
▁PDC	-5784
▁Pad	-5785
▁Tun	-5786
▁Wik	-5787
▁ast	-5788
▁bod	-5789
▁eld	-5790
▁enh	-5791
▁gas	-5792
▁lap	-5793
▁obt	-5794
▁pal	-5795
▁pup	-5796
▁sax	-5797
allen	-5798
antry	-5799
avery	-5800
endum	-5801
erved	-5802
esota	-5803
hemat	-5804
iling	-5805
ishes	-5806
istan	-5807
izens	-5808
lands	-5809
ledge	-5810
orado	-5811
ormal	-5812
oting	-5813
ounts	-5814
spect	-5815
stant	-5816
stein	-5817
uries	-5818
▁1903	-5819
▁9780	-5820
▁Ball	-5821
▁Bram	-5822
▁Bull	-5823
▁Corm	-5824
▁Cuba	-5825
▁Donn	-5826
▁Epis	-5827
▁Expl	-5828
▁Guru	-5829
▁News	-5830
▁Otto	-5831
▁Pass	-5832
▁Plot	-5833
▁Raba	-5834
▁Shap	-5835
▁Shel	-5836
▁Stro	-5837
▁Time	-5838
▁Todd	-5839
▁Ward	-5840
▁Work	-5841
▁anti	-5842
▁bene	-5843
▁blue	-5844
▁cann	-5845
▁copy	-5846
▁cous	-5847
▁drug	-5848
▁ever	-5849
▁lord	-5850
▁paid	-5851
▁rape	-5852
▁seat	-5853
▁shop	-5854
▁user	-5855
ameter	-5856
ateful	-5857
irtsch	-5858
ndered	-5859
othing	-5860
oustic	-5861
urcell	-5862
ynolds	-5863
▁2006.	-5864
▁2007,	-5865
▁2014.	-5866
▁2017.	-5867
▁2022.	-5868
▁2023.	-5869
▁Accra	-5870
▁Apple	-5871
▁Banda	-5872
▁COVID	-5873
▁Chile	-5874
▁Colon	-5875
▁Energ	-5876
▁Epsom	-5877
▁Guide	-5878
▁Lagos	-5879
▁Museo	-5880
▁Night	-5881
▁Panth	-5882
▁Peyer	-5883
▁Ridge	-5884
▁Ultra	-5885
▁Video	-5886
▁Woods	-5887
▁arran	-5888
▁broke	-5889
▁cause	-5890
▁comes	-5891
▁decor	-5892
▁dedic	-5893
▁drive	-5894
▁enjoy	-5895
▁heard	-5896
▁heart	-5897
▁honor	-5898
▁milit	-5899
▁paper	-5900
▁rival	-5901
▁score	-5902
▁store	-5903
▁tribe	-5904
▁worth	-5905
Spanish	-5906
achelor	-5907
sterdam	-5908
▁(2007)	-5909
▁(2009)	-5910
▁Brooks	-5911
▁Burton	-5912
▁Daniel	-5913
▁Former	-5914
▁Greece	-5915
▁Madonn	-5916
▁Norman	-5917
▁Places	-5918
▁Poland	-5919
▁Region	-5920
▁Rights	-5921
▁Spring	-5922
▁Winter	-5923
▁appeal	-5924
▁begins	-5925
▁charge	-5926
▁column	-5927
▁damage	-5928
▁exclus	-5929
▁flower	-5930
▁growth	-5931
▁higher	-5932
▁integr	-5933
▁leaves	-5934
▁likely	-5935
▁refuge	-5936
▁sevent	-5937
▁shared	-5938
▁silver	-5939
▁threat	-5940
▁unable	-5941
▁writes	-5942
atically	-5943
izations	-5944
tainment	-5945
▁Antonio	-5946
▁Armenia	-5947
▁Complex	-5948
▁Cormier	-5949
▁Current	-5950
▁Honours	-5951
▁Network	-5952
▁Senator	-5953
▁Swedish	-5954
▁Turkish	-5955
▁Warwick	-5956
▁article	-5957
▁conclud	-5958
▁consist	-5959
▁consult	-5960
▁content	-5961
▁defence	-5962
▁defined	-5963
▁efforts	-5964
▁figures	-5965
▁finally	-5966
▁focuses	-5967
▁improve	-5968
▁invited	-5969
▁product	-5970
▁profile	-5971
▁quality	-5972
▁remains	-5973
▁removed	-5974
▁section	-5975
▁somatic	-5976
▁spirits	-5977
▁studies	-5978
▁suggest	-5979
▁surface	-5980
▁telling	-5981
▁Children	-5982
▁Michigan	-5983
▁Mohammed	-5984
▁Spectrum	-5985
▁Virginia	-5986
▁assembly	-5987
▁captured	-5988
▁composed	-5989
▁eligible	-5990
▁executed	-5991
▁historic	-5992
▁literary	-5993
▁recently	-5994
▁retained	-5995
▁sculptor	-5996
▁stations	-5997
▁villages	-5998
emptations	-5999
▁Americans	-6000
▁Amsterdam	-6001
▁Athletics	-6002
▁Community	-6003
▁Macedonia	-6004
▁champions	-6005
▁expressed	-6006
▁formation	-6007
▁marketing	-6008
▁officials	-6009
▁philosoph	-6010
▁potential	-6011
▁premiered	-6012
▁prominent	-6013
▁qualified	-6014
▁receiving	-6015
▁regarding	-6016
▁regulated	-6017
▁resources	-6018
▁Throughout	-6019
▁background	-6020
▁operations	-6021
▁referendum	-6022
▁reputation	-6023
▁controversy	-6024
▁descendants	-6025
▁Constitution	-6026
▁construction	-6027
▁Entertainment	-6028
▁manufacturing	-6029
▁administration	-6030
-3	-6031
.;	-6032
11	-6033
27	-6034
33	-6035
7%	-6036
79	-6037
HE	-6038
It	-6039
Ne	-6040
OS	-6041
PS	-6042
Se	-6043
TO	-6044
da	-6045
hi	-6046
ih	-6047
ji	-6048
rc	-6049
sk	-6050
–0	-6051
"),	-6052
5).	-6053
8).	-6054
aph	-6055
asp	-6056
die	-6057
eks	-6058
han	-6059
ieu	-6060
ini	-6061
ken	-6062
len	-6063
lor	-6064
ogy	-6065
ola	-6066
oso	-6067
pre	-6068
rac	-6069
wer	-6070
zić	-6071
мен	-6072
▁(6	-6073
▁65	-6074
▁80	-6075
▁90	-6076
▁CE	-6077
▁DC	-6078
▁IA	-6079
▁Ly	-6080
▁Pa	-6081
▁Ta	-6082
▁ut	-6083
agar	-6084
aman	-6085
ambo	-6086
book	-6087
chen	-6088
full	-6089
hatt	-6090
hnik	-6091
iced	-6092
ichi	-6093
indy	-6094
ners	-6095
oked	-6096
olas	-6097
olls	-6098
onic	-6099
phan	-6100
phas	-6101
pond	-6102
ties	-6103
ulty	-6104
wald	-6105
▁179	-6106
▁27,	-6107
▁Aet	-6108
▁Amb	-6109
▁Ast	-6110
▁Bes	-6111
▁Bry	-6112
▁Cha	-6113
▁Deb	-6114
▁Der	-6115
▁Dis	-6116
▁Gil	-6117
▁Hug	-6118
▁Ike	-6119
▁Jer	-6120
▁Kir	-6121
▁Lau	-6122
▁Lin	-6123
▁Lok	-6124
▁Low	-6125
▁Lux	-6126
▁Nap	-6127
▁Pav	-6128
▁Pen	-6129
▁Sym	-6130
▁Van	-6131
▁Wor	-6132
▁Yan	-6133
▁bes	-6134
▁eas	-6135
▁god	-6136
▁gun	-6137
▁hon	-6138
▁pow	-6139
▁pri	-6140
▁pun	-6141
▁tax	-6142
▁voy	-6143
0,000	-6144
ables	-6145
ading	-6146
anner	-6147
eleus	-6148
elisz	-6149
gener	-6150
holds	-6151
icine	-6152
igins	-6153
ivity	-6154
lines	-6155
mined	-6156
miral	-6157
oking	-6158
onomy	-6159
peror	-6160
rence	-6161
retto	-6162
rophy	-6163
tered	-6164
uppet	-6165
▁1902	-6166
▁1978	-6167
▁1986	-6168
▁Bang	-6169
▁Belg	-6170
▁Chap	-6171
▁Clar	-6172
▁Conf	-6173
▁Cubs	-6174
▁Dall	-6175
▁Feat	-6176
▁Five	-6177
▁Hugh	-6178
▁Khan	-6179
▁Lund	-6180
▁Magu	-6181
▁Mani	-6182
▁Musa	-6183
▁Salt	-6184
▁Slov	-6185
▁Then	-6186
▁Trad	-6187
▁Ualg	-6188
▁WTTI	-6189
▁Wall	-6190
▁Wolf	-6191
▁Your	-6192
▁bank	-6193
▁cool	-6194
▁face	-6195
▁farm	-6196
▁fast	-6197
▁murd	-6198
▁news	-6199
▁pack	-6200
▁slow	-6201
▁solo	-6202
▁suit	-6203
▁tall	-6204
▁your	-6205
action	-6206
brecht	-6207
ducing	-6208
ewhere	-6209
hnikov	-6210
iation	-6211
school	-6212
undred	-6213
ussian	-6214
▁2000,	-6215
▁2010.	-6216
▁2016.	-6217
▁2024.	-6218
▁About	-6219
▁Araki	-6220
▁Attal	-6221
▁Becky	-6222
▁Belud	-6223
▁Boris	-6224
▁Civil	-6225
▁Conch	-6226
▁Doral	-6227
▁Harry	-6228
▁Leban	-6229
▁Liter	-6230
▁Milan	-6231
▁Pract	-6232
▁Price	-6233
▁Prior	-6234
▁Sligo	-6235
▁Stock	-6236
▁Story	-6237
▁Sugar	-6238
▁Today	-6239
▁Tokyo	-6240
▁Umboh	-6241
▁abuse	-6242
▁agent	-6243
▁brand	-6244
▁cases	-6245
▁daily	-6246
▁drama	-6247
▁dress	-6248
▁exile	-6249
▁exist	-6250
▁finds	-6251
▁overs	-6252
▁pilot	-6253
▁share	-6254
▁shoot	-6255
▁siege	-6256
▁speed	-6257
▁table	-6258
▁takes	-6259
▁walks	-6260
athered	-6261
century	-6262
chester	-6263
ictions	-6264
iration	-6265
mercial	-6266
ospital	-6267
plified	-6268
▁(2012)	-6269
▁Bullet	-6270
▁Dilaut	-6271
▁Donald	-6272
▁Garden	-6273
▁Health	-6274
▁Musaev	-6275
▁Nature	-6276
▁Neleus	-6277
▁Office	-6278
▁Palace	-6279
▁Shapos	-6280
▁Terzić	-6281
▁Though	-6282
▁Veitch	-6283
▁Worror	-6284
▁advant	-6285
▁assass	-6286
▁coming	-6287
▁create	-6288
▁driver	-6289
▁eighth	-6290
▁ensure	-6291
▁formal	-6292
▁govern	-6293
▁headed	-6294
▁hockey	-6295
▁improv	-6296
▁income	-6297
▁larger	-6298
▁medals	-6299
▁models	-6300
▁necess	-6301
▁needed	-6302
▁oldest	-6303
▁option	-6304
▁passes	-6305
▁reason	-6306
▁sexual	-6307
▁skills	-6308
▁speech	-6309
▁spring	-6310
▁stress	-6311
▁talent	-6312
▁taught	-6313
▁weight	-6314
building	-6315
▁Barbara	-6316
▁Between	-6317
▁Corinth	-6318
▁Country	-6319
▁Digital	-6320
▁Discogs	-6321
▁Douglas	-6322
▁Nuclear	-6323
▁Schools	-6324
▁Theater	-6325
▁Twitter	-6326
▁Ualgarg	-6327
▁Written	-6328
▁aspects	-6329
▁carrier	-6330
▁drivers	-6331
▁forward	-6332
▁hunting	-6333
▁initial	-6334
▁install	-6335
▁killing	-6336
▁manager	-6337
▁opposed	-6338
▁pattern	-6339
▁pitched	-6340
▁planned	-6341
▁printed	-6342
▁problem	-6343
▁qualify	-6344
▁quarter	-6345
▁quickly	-6346
▁schedul	-6347
▁starter	-6348
▁unusual	-6349
▁viewers	-6350
▁Cultural	-6351
▁Memorial	-6352
▁alliance	-6353
▁approach	-6354
▁articles	-6355
▁concerns	-6356
▁contrast	-6357
▁directly	-6358
▁engineer	-6359
▁inspired	-6360
▁libretto	-6361
▁majority	-6362
▁occasion	-6363
▁officers	-6364
▁petition	-6365
▁portrait	-6366
▁pressure	-6367
▁rejected	-6368
▁requires	-6369
▁spending	-6370
▁Armenians	-6371
▁Cornelisz	-6372
▁Madonnina	-6373
▁Minnesota	-6374
▁Nationals	-6375
▁Political	-6376
▁alongside	-6377
▁childhood	-6378
▁committed	-6379
▁publisher	-6380
▁something	-6381
▁structure	-6382
▁Pittsburgh	-6383
▁demolished	-6384
▁electorate	-6385
▁facilities	-6386
▁households	-6387
▁identified	-6388
▁influenced	-6389
▁principles	-6390
▁relatively	-6391
▁settlement	-6392
▁strengthen	-6393
▁Discography	-6394
▁association	-6395
▁contributed	-6396
▁educational	-6397
▁Shaposhnikov	-6398
▁independence	-6399
▁prostitution	-6400
▁requirements	-6401
▁Architectural	-6402
▁illustrations	-6403
-6	-6404
42	-6405
43	-6406
AN	-6407
As	-6408
DF	-6409
EU	-6410
FK	-6411
lv	-6412
mi	-6413
no	-6414
ui	-6415
wi	-6416
za	-6417
zb	-6418
és	-6419
ва	-6420
–7	-6421
▁‘	-6422
CAR	-6423
Dec	-6424
ava	-6425
bor	-6426
bro	-6427
fts	-6428
idn	-6429
iko	-6430
ión	-6431
jan	-6432
lag	-6433
lig	-6434
low	-6435
mod	-6436
omy	-6437
oye	-6438
sac	-6439
set	-6440
sid	-6441
sur	-6442
uba	-6443
ère	-6444
ени	-6445
▁3-	-6446
▁EP	-6447
▁Et	-6448
▁FC	-6449
▁Ig	-6450
▁Ll	-6451
▁Ng	-6452
▁Ub	-6453
/197	-6454
abri	-6455
agen	-6456
anim	-6457
apor	-6458
asty	-6459
atur	-6460
axim	-6461
bing	-6462
cont	-6463
earl	-6464
elli	-6465
elly	-6466
enty	-6467
fall	-6468
high	-6469
iban	-6470
ibus	-6471
iour	-6472
irds	-6473
jaja	-6474
kins	-6475
obal	-6476
ocal	-6477
ogan	-6478
orph	-6479
plan	-6480
rath	-6481
rena	-6482
resh	-6483
rete	-6484
rist	-6485
rods	-6486
thur	-6487
umes	-6488
uous	-6489
yond	-6490
▁(16	-6491
▁026	-6492
▁162	-6493
▁17,	-6494
▁183	-6495
▁185	-6496
▁20,	-6497
▁31,	-6498
▁Abu	-6499
▁Aff	-6500
▁Ash	-6501
▁Boy	-6502
▁Cit	-6503
▁Dam	-6504
▁Eff	-6505
▁Ern	-6506
▁Gen	-6507
▁Goa	-6508
▁Got	-6509
▁Gun	-6510
▁Ice	-6511
▁Jud	-6512
▁Lee	-6513
▁Let	-6514
▁Ltd	-6515
▁Mao	-6516
▁Mrs	-6517
▁Muh	-6518
▁RAE	-6519
▁Rag	-6520
▁Roy	-6521
▁SEI	-6522
▁Und	-6523
▁Web	-6524
▁amb	-6525
▁box	-6526
▁bra	-6527
▁dry	-6528
▁hop	-6529
▁hor	-6530
▁log	-6531
▁mac	-6532
▁mis	-6533
▁que	-6534
▁rim	-6535
▁sal	-6536
▁say	-6537
▁Álv	-6538
aches	-6539
ansas	-6540
antan	-6541
apers	-6542
avibh	-6543
board	-6544
chadh	-6545
echan	-6546
ersey	-6547
going	-6548
imore	-6549
ograp	-6550
olled	-6551
ounds	-6552
phony	-6553
polit	-6554
riate	-6555
risis	-6556
uster	-6557
works	-6558
▁1963	-6559
▁1981	-6560
▁1989	-6561
▁1992	-6562
▁1996	-6563
▁Balt	-6564
▁Barn	-6565
▁Base	-6566
▁Bell	-6567
▁Cour	-6568
▁Dark	-6569
▁Elko	-6570
▁Ever	-6571
▁Fern	-6572
▁Fitz	-6573
▁Greg	-6574
▁Hard	-6575
▁Hook	-6576
▁Jeff	-6577
▁Late	-6578
▁Leon	-6579
▁Lind	-6580
▁Plan	-6581
▁Priv	-6582
▁Rang	-6583
▁Tyrc	-6584
▁asks	-6585
▁card	-6586
▁clin	-6587
▁dire	-6588
▁hair	-6589
▁here	-6590
▁jazz	-6591
▁myst	-6592
▁park	-6593
▁plot	-6594
▁stab	-6595
▁step	-6596
▁true	-6597
▁type	-6598
▁vary	-6599
Energy	-6600
anging	-6601
aurant	-6602
ceived	-6603
imedia	-6604
linois	-6605
person	-6606
server	-6607
shaped	-6608
▁(2019	-6609
▁2004,	-6610
▁Abbey	-6611
▁Agent	-6612
▁Arena	-6613
▁Barry	-6614
▁Capit	-6615
▁Chika	-6616
▁Class	-6617
▁Craig	-6618
▁Kings	-6619
▁Mummy	-6620
▁Nunes	-6621
▁Oaken	-6622
▁Water	-6623
▁advis	-6624
▁ahead	-6625
▁aired	-6626
▁aster	-6627
▁doing	-6628
▁fleet	-6629
▁funds	-6630
▁grant	-6631
▁hands	-6632
▁lines	-6633
▁maxim	-6634
▁meals	-6635
▁prime	-6636
▁reign	-6637
▁renew	-6638
▁spons	-6639
▁steel	-6640
▁thing	-6641
▁throw	-6642
▁union	-6643
▁views	-6644
▁visit	-6645
▁waste	-6646
Russian	-6647
cluding	-6648
ections	-6649
essions	-6650
fiction	-6651
ovation	-6652
related	-6653
respond	-6654
ression	-6655
▁(2008)	-6656
▁(2014)	-6657
▁978-1-	-6658
▁Albert	-6659
▁Arthur	-6660
▁Dayang	-6661
▁Flight	-6662
▁Golden	-6663
▁Jersey	-6664
▁Lennon	-6665
▁Musica	-6666
▁Number	-6667
▁Peters	-6668
▁Proble	-6669
▁Season	-6670
▁Senior	-6671
▁Sharks	-6672
▁Southe	-6673
▁Tigern	-6674
▁Tigers	-6675
▁affili	-6676
▁allies	-6677
▁arrang	-6678
▁assemb	-6679
▁bottom	-6680
▁caught	-6681
▁circum	-6682
▁county	-6683
▁cousin	-6684
▁danger	-6685
▁demand	-6686
▁enough	-6687
▁figure	-6688
▁height	-6689
▁marked	-6690
▁mechan	-6691
▁metres	-6692
▁museum	-6693
▁prompt	-6694
▁search	-6695
▁sports	-6696
▁stayed	-6697
▁symbol	-6698
▁target	-6699
▁twelve	-6700
▁wealth	-6701
▁Álvaro	-6702
dwelling	-6703
ervative	-6704
ographic	-6705
▁(1997),	-6706
▁Ancient	-6707
▁Brooker	-6708
▁Commons	-6709
▁Croatia	-6710
▁Defense	-6711
▁Israeli	-6712
▁Ramrods	-6713
▁Registr	-6714
▁account	-6715
▁airport	-6716
▁calling	-6717
▁captain	-6718
▁contain	-6719
▁critics	-6720
▁effects	-6721
▁failure	-6722
▁flowers	-6723
▁focused	-6724
▁freedom	-6725
▁hundred	-6726
▁kilomet	-6727
▁leaders	-6728
▁peoples	-6729
▁planted	-6730
▁reality	-6731
▁request	-6732
▁respond	-6733
▁science	-6734
▁selling	-6735
▁someone	-6736
▁storage	-6737
▁witness	-6738
▁Ethiopia	-6739
▁Greville	-6740
▁Illinois	-6741
▁Maryland	-6742
▁Pictures	-6743
▁Reynolds	-6744
▁Selected	-6745
▁Victoria	-6746
▁Wildlife	-6747
▁acoustic	-6748
▁adjacent	-6749
▁arriving	-6750
▁assisted	-6751
▁audience	-6752
▁collabor	-6753
▁database	-6754
▁diameter	-6755
▁expected	-6756
▁exposure	-6757
▁kingship	-6758
▁obtained	-6759
▁provides	-6760
▁resident	-6761
▁restored	-6762
▁restrict	-6763
▁starring	-6764
ifications	-6765
▁Caribbean	-6766
▁Oakenfull	-6767
▁Orchestra	-6768
▁Transport	-6769
▁abandoned	-6770
▁condenser	-6771
▁consisted	-6772
▁dedicated	-6773
▁describes	-6774
▁documents	-6775
▁elections	-6776
▁estimated	-6777
▁intention	-6778
▁newspaper	-6779
▁purchased	-6780
▁remainder	-6781
▁shortstop	-6782
▁standings	-6783
▁successor	-6784
▁thousands	-6785
▁Indonesian	-6786
▁Republican	-6787
▁Tyrconnell	-6788
▁challenges	-6789
▁conditions	-6790
▁connection	-6791
▁investment	-6792
▁performing	-6793
▁permission	-6794
▁university	-6795
▁Legislative	-6796
▁Productions	-6797
▁businessman	-6798
▁compilation	-6799
▁constructed	-6800
▁destruction	-6801
▁surrounding	-6802
▁Professional	-6803
▁Rhododendron	-6804
▁intermediate	-6805
▁Representatives	-6806
1%	-6807
1–	-6808
41	-6809
68	-6810
83	-6811
BO	-6812
RP	-6813
Un	-6814
_{	-6815
kt	-6816
tt	-6817
yr	-6818
ín	-6819
го	-6820
ль	-6821
").	-6822
)".	-6823
00.	-6824
201	-6825
7).	-6826
EUR	-6827
FNP	-6828
Ind	-6829
adi	-6830
agn	-6831
aki	-6832
aud	-6833
bar	-6834
cow	-6835
def	-6836
fur	-6837
hir	-6838
iga	-6839
ijs	-6840
lad	-6841
oes	-6842
omm	-6843
phe	-6844
sen	-6845
uct	-6846
uet	-6847
uki	-6848
unc	-6849
vis	-6850
yak	-6851
yes	-6852
ско	-6853
–12	-6854
▁(2	-6855
▁38	-6856
▁4.	-6857
▁46	-6858
▁57	-6859
▁67	-6860
▁AM	-6861
▁FI	-6862
▁GA	-6863
▁Ik	-6864
▁Li	-6865
VEUR	-6866
agre	-6867
angi	-6868
arts	-6869
aste	-6870
avas	-6871
edge	-6872
elsh	-6873
eski	-6874
hing	-6875
iane	-6876
igit	-6877
irit	-6878
kees	-6879
ogle	-6880
orus	-6881
ract	-6882
raph	-6883
rect	-6884
room	-6885
rowd	-6886
stel	-6887
ucky	-6888
umen	-6889
wers	-6890
▁(3)	-6891
▁139	-6892
▁182	-6893
▁21,	-6894
▁29,	-6895
▁500	-6896
▁Alb	-6897
▁Bad	-6898
▁Bah	-6899
▁Bon	-6900
▁Bug	-6901
▁Eag	-6902
▁Fro	-6903
▁Ger	-6904
▁Han	-6905
▁Inf	-6906
▁Kam	-6907
▁Lew	-6908
▁Lib	-6909
▁Mór	-6910
▁Nel	-6911
▁Ped	-6912
▁Pek	-6913
▁Pel	-6914
▁Rem	-6915
▁Ric	-6916
▁Sov	-6917
▁Sun	-6918
▁Vik	-6919
▁Whe	-6920
▁aid	-6921
▁bud	-6922
▁cyl	-6923
▁era	-6924
▁etc	-6925
▁fru	-6926
▁nov	-6927
▁pan	-6928
▁ran	-6929
▁rot	-6930
akers	-6931
aming	-6932
apped	-6933
arked	-6934
ashed	-6935
asses	-6936
awesi	-6937
bably	-6938
cedes	-6939
chard	-6940
ellor	-6941
estab	-6942
fully	-6943
giate	-6944
igion	-6945
inant	-6946
inces	-6947
ivors	-6948
lined	-6949
ollah	-6950
ongue	-6951
onsin	-6952
ophob	-6953
orthe	-6954
osion	-6955
piece	-6956
throp	-6957
tical	-6958
▁1927	-6959
▁1940	-6960
▁1971	-6961
▁1983	-6962
▁1991	-6963
▁Batt	-6964
▁Cenc	-6965
▁Circ	-6966
▁Coll	-6967
▁Draw	-6968
▁Gard	-6969
▁Glen	-6970
▁Hand	-6971
▁Hell	-6972
▁Hend	-6973
▁Hezb	-6974
▁Holy	-6975
▁IATA	-6976
▁Karn	-6977
▁Lost	-6978
▁Made	-6979
▁Manu	-6980
▁Mess	-6981
▁Mind	-6982
▁Mong	-6983
▁Naim	-6984
▁Nine	-6985
▁Only	-6986
▁Past	-6987
▁Perg	-6988
▁Prix	-6989
▁Rest	-6990
▁Ross	-6991
▁Rush	-6992
▁Side	-6993
▁Tele	-6994
▁Trib	-6995
▁Wisc	-6996
▁boys	-6997
▁chem	-6998
▁clan	-6999
▁clos	-7000
▁corn	-7001
▁dram	-7002
▁evac	-7003
▁feet	-7004
▁heir	-7005
▁igal	-7006
▁lect	-7007
▁mile	-7008
▁moth	-7009
▁pand	-7010
▁poor	-7011
▁rich	-7012
▁rout	-7013
▁seem	-7014
▁sequ	-7015
▁sets	-7016
▁tank	-7017
▁trip	-7018
▁wave	-7019
atched	-7020
ecting	-7021
hattan	-7022
holder	-7023
icture	-7024
idency	-7025
inghua	-7026
litter	-7027
orders	-7028
ourney	-7029
panied	-7030
rastus	-7031
ricted	-7032
uccess	-7033
▁1984,	-7034
▁2009.	-7035
▁Alber	-7036
▁Album	-7037
▁Blues	-7038
▁Borde	-7039
▁Bravo	-7040
▁Clark	-7041
▁Domin	-7042
▁Ethan	-7043
▁Every	-7044
▁Exper	-7045
▁Flock	-7046
▁Forum	-7047
▁Franz	-7048
▁Gabri	-7049
▁Grace	-7050
▁Griff	-7051
▁Lloyd	-7052
▁Malay	-7053
▁Marqu	-7054
▁Marsh	-7055
▁Phill	-7056
▁Rosie	-7057
▁Seven	-7058
▁Spark	-7059
▁Staff	-7060
▁Steve	-7061
▁Teams	-7062
▁Techn	-7063
▁Truth	-7064
▁balls	-7065
▁besie	-7066
▁chose	-7067
▁clubs	-7068
▁divor	-7069
▁drawn	-7070
▁entry	-7071
▁equip	-7072
▁fired	-7073
▁grave	-7074
▁guest	-7075
▁hotel	-7076
▁instr	-7077
▁kings	-7078
▁leads	-7079
▁meant	-7080
▁piece	-7081
▁plans	-7082
▁raids	-7083
▁rated	-7084
▁rough	-7085
▁rules	-7086
▁sense	-7087
▁stock	-7088
▁trust	-7089
▁valve	-7090
▁walls	-7091
▁wants	-7092
▁words	-7093
General	-7094
Purcell	-7095
display	-7096
ifinals	-7097
inburgh	-7098
irlines	-7099
ologies	-7100
otional	-7101
umental	-7102
▁(1987)	-7103
▁Akhand	-7104
▁Annual	-7105
▁Arabia	-7106
▁Artist	-7107
▁Bengal	-7108
▁Carrig	-7109
▁Claude	-7110
▁Dallas	-7111
▁Eatock	-7112
▁Engine	-7113
▁Google	-7114
▁Growth	-7115
▁Hikaru	-7116
▁Marvel	-7117
▁Maxine	-7118
▁Moscow	-7119
▁NASCAR	-7120
▁Nation	-7121
▁Nestor	-7122
▁Perman	-7123
▁Rainer	-7124
▁Report	-7125
▁Rockin	-7126
▁Samuel	-7127
▁Sidyak	-7128
▁Soviet	-7129
▁Stoker	-7130
▁advice	-7131
▁bishop	-7132
▁branch	-7133
▁cannot	-7134
▁choose	-7135
▁combat	-7136
▁cylind	-7137
▁effort	-7138
▁eldest	-7139
▁emphas	-7140
▁ending	-7141
▁finals	-7142
▁intern	-7143
▁judges	-7144
▁launch	-7145
▁memoir	-7146
▁missed	-7147
▁observ	-7148
▁posted	-7149
▁prices	-7150
▁remove	-7151
▁secure	-7152
▁silent	-7153
▁soccer	-7154
▁traded	-7155
▁voyage	-7156
antanamo	-7157
atherine	-7158
entially	-7159
fficient	-7160
ordinary	-7161
▁Anthrop	-7162
▁Batavia	-7163
▁Conchob	-7164
▁Culture	-7165
▁Finland	-7166
▁Foreign	-7167
▁Frances	-7168
▁Kendall	-7169
▁Notable	-7170
▁Parthia	-7171
▁Preston	-7172
▁Program	-7173
▁Sources	-7174
▁Tourism	-7175
▁Univers	-7176
▁Unknown	-7177
▁Widjaja	-7178
▁Winners	-7179
▁Yankees	-7180
▁ability	-7181
▁becomes	-7182
▁causing	-7183
▁charged	-7184
▁coastal	-7185
▁coolant	-7186
▁damaged	-7187
▁decades	-7188
▁defense	-7189
▁degrees	-7190
▁display	-7191
▁dispute	-7192
▁drawing	-7193
▁dynasty	-7194
▁engaged	-7195
▁fantasy	-7196
▁feeling	-7197
▁grounds	-7198
▁habitat	-7199
▁heavily	-7200
▁inaugur	-7201
▁notably	-7202
▁playoff	-7203
▁reduced	-7204
▁retreat	-7205
▁stories	-7206
▁trading	-7207
▁variety	-7208
published	-7209
roduction	-7210
▁Ambition	-7211
▁Bordeaux	-7212
▁Colorado	-7213
▁Consumer	-7214
▁Croatian	-7215
▁Magazine	-7216
▁Muhammad	-7217
▁Security	-7218
▁Sulawesi	-7219
▁activist	-7220
▁approved	-7221
▁asteroid	-7222
▁citizens	-7223
▁compared	-7224
▁compound	-7225
▁consolid	-7226
▁credited	-7227
▁criminal	-7228
▁critical	-7229
▁distance	-7230
▁economic	-7231
▁extended	-7232
▁involves	-7233
▁pandemic	-7234
▁prisoner	-7235
▁resigned	-7236
▁striking	-7237
▁studying	-7238
▁Baltimore	-7239
▁Geography	-7240
▁Hezbollah	-7241
▁Manhattan	-7242
▁Municipal	-7243
▁Permanent	-7244
▁Wisconsin	-7245
▁advantage	-7246
▁centuries	-7247
▁defensive	-7248
▁extension	-7249
▁highlight	-7250
▁influence	-7251
▁locations	-7252
▁mentioned	-7253
▁operating	-7254
▁provinces	-7255
▁questions	-7256
▁rebellion	-7257
▁scheduled	-7258
▁schooling	-7259
▁suffering	-7260
▁surviving	-7261
▁survivors	-7262
▁tradition	-7263
▁Cencrastus	-7264
▁Eventually	-7265
▁absorption	-7266
▁businesses	-7267
▁controlled	-7268
▁correspond	-7269
▁curriculum	-7270
▁journalist	-7271
▁kilometres	-7272
▁lieutenant	-7273
▁literature	-7274
▁restricted	-7275
▁scientific	-7276
▁strikeouts	-7277
displaystyle	-7278
▁Christopher	-7279
▁FirstEnergy	-7280
▁discography	-7281
▁effectively	-7282
▁exclusively	-7283
▁experiences	-7284
▁participate	-7285
▁scholarship	-7286
▁Additionally	-7287
▁neighbouring	-7288
▁participated	-7289
▁automatically	-7290
▁controversial	-7291
▁extraordinary	-7292
+1	-7293
34	-7294
74	-7295
81	-7296
87	-7297
NS	-7298
SS	-7299
jo	-7300
mo	-7301
nz	-7302
pa	-7303
ık	-7304
Тю	-7305
⁄3	-7306
トラ	-7307
次郎	-7308
2):	-7309
And	-7310
CLC	-7311
CSO	-7312
EFA	-7313
Mar	-7314
Mer	-7315
USA	-7316
arm	-7317
azi	-7318
boa	-7319
bow	-7320
cut	-7321
din	-7322
edd	-7323
etz	-7324
ito	-7325
nas	-7326
odh	-7327
okk	-7328
olt	-7329
ppe	-7330
rag	-7331
rub	-7332
sis	-7333
syl	-7334
too	-7335
uta	-7336
uya	-7337
yan	-7338
yll	-7339
zzi	-7340
–13	-7341
▁$1	-7342
▁32	-7343
▁42	-7344
▁55	-7345
▁6.	-7346
▁Ah	-7347
▁Da	-7348
▁JR	-7349
▁Ka	-7350
▁Su	-7351
▁VI	-7352
▁WN	-7353
▁ce	-7354
▁mo	-7355
▁об	-7356
....	-7357
June	-7358
Tawi	-7359
acre	-7360
adic	-7361
alsa	-7362
alym	-7363
angh	-7364
ante	-7365
atio	-7366
aved	-7367
bers	-7368
bles	-7369
burn	-7370
cean	-7371
code	-7372
dale	-7373
eces	-7374
elen	-7375
enus	-7376
eper	-7377
eple	-7378
fits	-7379
fted	-7380
ging	-7381
host	-7382
hsil	-7383
ilty	-7384
ioch	-7385
irch	-7386
ishi	-7387
lain	-7388
leep	-7389
medi	-7390
ogne	-7391
ogue	-7392
olin	-7393
orna	-7394
oupl	-7395
ping	-7396
riot	-7397
rupt	-7398
uese	-7399
weet	-7400
▁(1,	-7401
▁(14	-7402
▁10.	-7403
▁157	-7404
▁178	-7405
▁181	-7406
▁Boe	-7407
▁Bud	-7408
▁Dix	-7409
▁Dor	-7410
▁EIC	-7411
▁Fac	-7412
▁Fij	-7413
▁Hig	-7414
▁Imp	-7415
▁Ken	-7416
▁Mis	-7417
▁NHL	-7418
▁NRC	-7419
▁Nab	-7420
▁Pic	-7421
▁Rol	-7422
▁Ron	-7423
▁Rut	-7424
▁Sax	-7425
▁Sel	-7426
▁Sew	-7427
▁Sib	-7428
▁Sor	-7429
▁Tai	-7430
▁Tay	-7431
▁USA	-7432
▁Vin	-7433
▁Wie	-7434
▁bin	-7435
▁bor	-7436
▁bus	-7437
▁die	-7438
▁dur	-7439
▁eat	-7440
▁ess	-7441
▁exc	-7442
▁hom	-7443
▁las	-7444
▁map	-7445
▁san	-7446
▁upd	-7447
▁vac	-7448
▁ven	-7449
▁vir	-7450
▁wel	-7451
April	-7452
Neill	-7453
abusa	-7454
anged	-7455
ardie	-7456
arent	-7457
atest	-7458
backs	-7459
chair	-7460
chant	-7461
eless	-7462
eline	-7463
empts	-7464
ennis	-7465
esian	-7466
eward	-7467
iants	-7468
icted	-7469
ingen	-7470
itage	-7471
itzer	-7472
opper	-7473
organ	-7474
orite	-7475
porna	-7476
ronze	-7477
ungen	-7478
vania	-7479
Тюмен	-7480
▁1969	-7481
▁1973	-7482
▁1979	-7483
▁1984	-7484
▁1987	-7485
▁1988	-7486
▁1993	-7487
▁Alan	-7488
▁Aodh	-7489
▁Bast	-7490
▁Boat	-7491
▁Bomb	-7492
▁Bras	-7493
▁Clay	-7494
▁Cong	-7495
▁Dour	-7496
▁Esso	-7497
▁Gijs	-7498
▁Glou	-7499
▁Jess	-7500
▁Last	-7501
▁Lizz	-7502
▁Mann	-7503
▁Mina	-7504
▁OCLC	-7505
▁Reds	-7506
▁Sund	-7507
▁Tawi	-7508
▁Tina	-7509
▁Upon	-7510
▁Vers	-7511
▁WFNP	-7512
▁Wait	-7513
▁Watt	-7514
▁anim	-7515
▁dead	-7516
▁duty	-7517
▁else	-7518
▁fell	-7519
▁fine	-7520
▁mean	-7521
▁ment	-7522
▁pool	-7523
▁prep	-7524
▁pron	-7525
▁raid	-7526
▁rhod	-7527
▁rice	-7528
▁risk	-7529
▁safe	-7530
▁semi	-7531
▁ways	-7532
▁wide	-7533
ardian	-7534
arents	-7535
bourne	-7536
common	-7537
emeter	-7538
encies	-7539
guitar	-7540
icutto	-7541
iddles	-7542
master	-7543
ortion	-7544
stream	-7545
▁(2012	-7546
▁1973,	-7547
▁1986,	-7548
▁1990.	-7549
▁1993,	-7550
▁1994.	-7551
▁2004.	-7552
▁2005,	-7553
▁Alice	-7554
▁Along	-7555
▁Beach	-7556
▁Blood	-7557
▁Carha	-7558
▁Clarà	-7559
▁Daily	-7560
▁Diane	-7561
▁Dolls	-7562
▁Dress	-7563
▁Johns	-7564
▁Local	-7565
▁Lucis	-7566
▁Mainz	-7567
▁Movie	-7568
▁Musée	-7569
▁Okine	-7570
▁Panch	-7571
▁Psych	-7572
▁Reich	-7573
▁Roger	-7574
▁Sasan	-7575
▁Short	-7576
▁Sikhs	-7577
▁Treas	-7578
▁abbey	-7579
▁alone	-7580
▁angle	-7581
▁armed	-7582
▁avoid	-7583
▁blood	-7584
▁cited	-7585
▁defin	-7586
▁earth	-7587
▁finta	-7588
▁fully	-7589
▁genus	-7590
▁goods	-7591
▁grass	-7592
▁holds	-7593
▁homes	-7594
▁hosts	-7595
▁labor	-7596
▁pages	-7597
▁poker	-7598
▁roads	-7599
▁roots	-7600
▁shipw	-7601
▁stood	-7602
▁super	-7603
▁talks	-7604
▁weeks	-7605
iencing	-7606
istance	-7607
oulogne	-7608
stances	-7609
▁(2002)	-7610
▁(2005)	-7611
▁(2010)	-7612
▁(2015)	-7613
▁Austin	-7614
▁Common	-7615
▁Doctor	-7616
▁Father	-7617
▁Fellow	-7618
▁Fortun	-7619
▁Horror	-7620
▁Hurley	-7621
▁Khalsa	-7622
▁Lisboa	-7623
▁NAVEUR	-7624
▁Nelson	-7625
▁Oliver	-7626
▁Online	-7627
▁Pekcan	-7628
▁Pierce	-7629
▁Pierre	-7630
▁Spider	-7631
▁Stolen	-7632
▁Tatars	-7633
▁advent	-7634
▁ambass	-7635
▁assess	-7636
▁beauty	-7637
▁bridge	-7638
▁bronze	-7639
▁campus	-7640
▁canton	-7641
▁chiefs	-7642
▁destro	-7643
▁easily	-7644
▁edited	-7645
▁energy	-7646
▁enroll	-7647
▁examin	-7648
▁finish	-7649
▁immedi	-7650
▁mayors	-7651
▁mental	-7652
▁narrow	-7653
▁offers	-7654
▁patron	-7655
▁pieces	-7656
▁pupils	-7657
▁pursue	-7658
▁really	-7659
▁specif	-7660
▁street	-7661
▁titled	-7662
▁trauma	-7663
▁treaty	-7664
▁upgrad	-7665
▁vessel	-7666
▁winner	-7667
December	-7668
avibhaga	-7669
ographer	-7670
ramaniam	-7671
standing	-7672
sylvania	-7673
▁(1998),	-7674
▁Alberta	-7675
▁Anthony	-7676
▁Archive	-7677
▁Attalus	-7678
▁Bullock	-7679
▁Chapman	-7680
▁Cicutto	-7681
▁Command	-7682
▁Dourado	-7683
▁Gabriel	-7684
▁Instead	-7685
▁Kennedy	-7686
▁Kirtani	-7687
▁Magomed	-7688
▁Matthew	-7689
▁Members	-7690
▁Minghua	-7691
▁Montana	-7692
▁Orioles	-7693
▁Paralym	-7694
▁Pirates	-7695
▁Present	-7696
▁Primary	-7697
▁Randhir	-7698
▁Taliban	-7699
▁Vermont	-7700
▁admiral	-7701
▁appoint	-7702
▁attacks	-7703
▁baseman	-7704
▁billion	-7705
▁chopper	-7706
▁consequ	-7707
▁coordin	-7708
▁descent	-7709
▁dismiss	-7710
▁drummer	-7711
▁economy	-7712
▁element	-7713
▁estates	-7714
▁faculty	-7715
▁glitter	-7716
▁holding	-7717
▁hosting	-7718
▁infrast	-7719
▁inhabit	-7720
▁injured	-7721
▁invaded	-7722
▁library	-7723
▁morning	-7724
▁overall	-7725
▁partner	-7726
▁pitches	-7727
▁portray	-7728
▁replace	-7729
▁reviews	-7730
▁seeking	-7731
▁session	-7732
▁shortly	-7733
▁soldier	-7734
▁suicide	-7735
▁surname	-7736
▁tension	-7737
▁turbine	-7738
▁winners	-7739
ictionary	-7740
▁Alliance	-7741
▁Confeder	-7742
▁Episodes	-7743
▁Hayabusa	-7744
▁Independ	-7745
▁Lebanese	-7746
▁Location	-7747
▁Lundberg	-7748
▁Mercedes	-7749
▁Observer	-7750
▁Sciences	-7751
▁Senators	-7752
▁Students	-7753
▁Symphony	-7754
▁Universe	-7755
▁advanced	-7756
▁arranged	-7757
▁calendar	-7758
▁communes	-7759
▁defended	-7760
▁drawings	-7761
▁entirely	-7762
▁fighting	-7763
▁function	-7764
▁gathered	-7765
▁immanent	-7766
▁learning	-7767
▁maintain	-7768
▁measures	-7769
▁medicine	-7770
▁murdered	-7771
▁opponent	-7772
▁partners	-7773
▁presence	-7774
▁progress	-7775
▁reaching	-7776
▁regional	-7777
▁releases	-7778
▁reviewer	-7779
▁supposed	-7780
▁visiting	-7781
▁youngest	-7782
▁Administr	-7783
▁Barrymore	-7784
▁Broadcast	-7785
▁Commander	-7786
▁Conchobar	-7787
▁Connaught	-7788
▁Donnchadh	-7789
▁Edinburgh	-7790
▁Generally	-7791
▁Intellect	-7792
▁Published	-7793
▁Publisher	-7794
▁Southeast	-7795
▁Wikimedia	-7796
▁belonging	-7797
▁concluded	-7798
▁converted	-7799
▁daughters	-7800
▁direction	-7801
▁effective	-7802
▁exhibited	-7803
▁expansion	-7804
▁featuring	-7805
▁generator	-7806
▁operation	-7807
▁secretary	-7808
▁surrender	-7809
▁traumatic	-7810
▁Exposition	-7811
▁Gijsbrecht	-7812
▁Gloucester	-7813
▁Philippine	-7814
▁Policeband	-7815
▁Portuguese	-7816
▁afterwards	-7817
▁broadcasts	-7818
▁celebrated	-7819
▁commercial	-7820
▁completing	-7821
▁continuing	-7822
▁criticised	-7823
▁designated	-7824
▁importance	-7825
▁indicating	-7826
▁occupation	-7827
▁recognised	-7828
▁registrars	-7829
▁storylines	-7830
▁strategies	-7831
▁subsequent	-7832
▁succession	-7833
▁terminated	-7834
▁traditions	-7835
▁Carrigallen	-7836
▁Subramaniam	-7837
▁Temptations	-7838
▁accompanied	-7839
▁consecutive	-7840
▁contestants	-7841
▁documentary	-7842
▁experienced	-7843
▁immediately	-7844
▁inspiration	-7845
▁surrendered	-7846
▁territories	-7847
▁Anthropology	-7848
▁Experiencing	-7849
▁Pennsylvania	-7850
▁incorporated	-7851
▁Distinguished	-7852
▁organizations	-7853
▁understanding	-7854
!"	-7855
-5	-7856
02	-7857
5%	-7858
6%	-7859
AP	-7860
CM	-7861
EN	-7862
Is	-7863
MS	-7864
Ru	-7865
Wh	-7866
aq	-7867
ja	-7868
je	-7869
ju	-7870
lı	-7871
rm	-7872
su	-7873
ww	-7874
ña	-7875
ır	-7876
ни	-7877
–8	-7878
▁в	-7879
▁и	-7880
ウル	-7881
0).	-7882
18.	-7883
800	-7884
BAM	-7885
Cal	-7886
HEW	-7887
Pal	-7888
abe	-7889
aft	-7890
alo	-7891
ami	-7892
avk	-7893
avn	-7894
aza	-7895
bab	-7896
bes	-7897
bie	-7898
equ	-7899
erc	-7900
exp	-7901
fol	-7902
has	-7903
iah	-7904
iat	-7905
iel	-7906
ifo	-7907
igg	-7908
iti	-7909
kin	-7910
lee	-7911
not	-7912
oda	-7913
oga	-7914
osa	-7915
pid	-7916
rep	-7917
rez	-7918
rul	-7919
run	-7920
sal	-7921
tor	-7922
uum	-7923
}}:	-7924
–24	-7925
▁#2	-7926
▁1:	-7927
▁45	-7928
▁7-	-7929
▁76	-7930
▁AD	-7931
▁AF	-7932
▁Ba	-7933
▁CS	-7934
▁DJ	-7935
▁Gw	-7936
▁Ha	-7937
▁Lo	-7938
▁Mo	-7939
▁PM	-7940
▁Pi	-7941
▁Sa	-7942
▁Sr	-7943
▁Vo	-7944
▁sy	-7945
/198	-7946
0856	-7947
acon	-7948
aido	-7949
alph	-7950
amon	-7951
ankt	-7952
anni	-7953
arus	-7954
beat	-7955
brod	-7956
brow	-7957
cant	-7958
chez	-7959
cite	-7960
comp	-7961
eron	-7962
ette	-7963
foot	-7964
forc	-7965
game	-7966
ghan	-7967
heme	-7968
hire	-7969
ickn	-7970
idem	-7971
iern	-7972
ifle	-7973
ilia	-7974
illo	-7975
inch	-7976
ipel	-7977
load	-7978
ocks	-7979
olly	-7980
onte	-7981
osen	-7982
oura	-7983
quer	-7984
rome	-7985
rong	-7986
rons	-7987
roud	-7988
town	-7989
ucra	-7990
ugby	-7991
ukun	-7992
umin	-7993
vant	-7994
wise	-7995
ласт	-7996
▁(10	-7997
▁12.	-7998
▁126	-7999
▁134	-8000
▁184	-8001
▁ABC	-8002
▁Age	-8003
▁Ale	-8004
▁Baj	-8005
▁Ban	-8006
▁Cas	-8007
▁Ess	-8008
▁Ext	-8009
▁Fer	-8010
▁Fox	-8011
▁Fra	-8012
▁Gal	-8013
▁Gib	-8014
▁Gir	-8015
▁Gor	-8016
▁Hal	-8017
▁Ill	-8018
▁Kan	-8019
▁Kaz	-8020
▁Key	-8021
▁Kod	-8022
▁Kul	-8023
▁Lim	-8024
▁Mah	-8025
▁Nag	-8026
▁Ngā	-8027
▁Pop	-8028
▁RAF	-8029
▁Raf	-8030
▁Rod	-8031
▁Rub	-8032
▁Sky	-8033
▁Uly	-8034
▁VII	-8035
▁Yam	-8036
▁ans	-8037
▁ant	-8038
▁bad	-8039
▁ban	-8040
▁bay	-8041
▁bul	-8042
▁cry	-8043
▁els	-8044
▁fit	-8045
▁hur	-8046
▁hyp	-8047
▁ice	-8048
▁lem	-8049
▁lob	-8050
▁lug	-8051
▁mob	-8052
▁orn	-8053
▁pop	-8054
▁rav	-8055
▁rom	-8056
▁sac	-8057
ウルトラ	-8058
March	-8059
abled	-8060
adhna	-8061
akhra	-8062
ansom	-8063
avkaz	-8064
ayifo	-8065
brody	-8066
duces	-8067
emble	-8068
ented	-8069
essed	-8070
essee	-8071
ewitt	-8072
iders	-8073
inger	-8074
inion	-8075
itled	-8076
ivals	-8077
iyama	-8078
liter	-8079
okron	-8080
omber	-8081
order	-8082
otive	-8083
pping	-8084
riger	-8085
ssaly	-8086
stitu	-8087
ublin	-8088
uerto	-8089
urban	-8090
ushed	-8091
where	-8092
ández	-8093
▁1884	-8094
▁1908	-8095
▁1929	-8096
▁Also	-8097
▁Area	-8098
▁Bhai	-8099
▁Birm	-8100
▁Bone	-8101
▁Burn	-8102
▁Chak	-8103
▁Culp	-8104
▁Even	-8105
▁Face	-8106
▁Fair	-8107
▁Fall	-8108
▁Fiji	-8109
▁Gene	-8110
▁Gent	-8111
▁Grad	-8112
▁Here	-8113
▁Hope	-8114
▁Indo	-8115
▁Juan	-8116
▁KHEW	-8117
▁Lady	-8118
▁Laut	-8119
▁Leop	-8120
▁Mans	-8121
▁McCl	-8122
▁Mike	-8123
▁Mond	-8124
▁Name	-8125
▁Nich	-8126
▁Pete	-8127
▁Phys	-8128
▁Poly	-8129
▁Pope	-8130
▁Rosa	-8131
▁Sait	-8132
▁Sang	-8133
▁Stat	-8134
▁Taka	-8135
▁Tece	-8136
▁Urut	-8137
▁Wind	-8138
▁Zain	-8139
▁alto	-8140
▁auth	-8141
▁bicy	-8142
▁coat	-8143
▁danc	-8144
▁dial	-8145
▁didn	-8146
▁dise	-8147
▁fair	-8148
▁fame	-8149
▁fest	-8150
▁grew	-8151
▁hall	-8152
▁idea	-8153
▁impr	-8154
▁kidn	-8155
▁kiss	-8156
▁knew	-8157
▁link	-8158
▁mont	-8159
▁myth	-8160
▁navy	-8161
▁pazz	-8162
▁poll	-8163
▁rain	-8164
▁sole	-8165
▁spin	-8166
▁stay	-8167
▁summ	-8168
▁sust	-8169
▁tens	-8170
▁thir	-8171
▁trio	-8172
▁tune	-8173
▁util	-8174
▁weak	-8175
4-0856	-8176
:10.10	-8177
Lyrics	-8178
Stolen	-8179
active	-8180
aments	-8181
apolis	-8182
aughan	-8183
eather	-8184
ennial	-8185
ensity	-8186
father	-8187
govern	-8188
iamond	-8189
ilarly	-8190
irling	-8191
itects	-8192
mother	-8193
onents	-8194
ophone	-8195
piracy	-8196
profit	-8197
rophys	-8198
ulated	-8199
urring	-8200
utions	-8201
▁1919,	-8202
▁1985,	-8203
▁1987.	-8204
▁1988,	-8205
▁1991,	-8206
▁1991.	-8207
▁1992.	-8208
▁1996,	-8209
▁1999.	-8210
▁2003.	-8211
▁2007.	-8212
▁Achae	-8213
▁Baker	-8214
▁Basil	-8215
▁Block	-8216
▁Brune	-8217
▁Bruns	-8218
▁Cindy	-8219
▁Elite	-8220
▁Flora	-8221
▁Honor	-8222
▁Image	-8223
▁Joint	-8224
▁Latin	-8225
▁Light	-8226
▁Luxon	-8227
▁Mayor	-8228
▁Model	-8229
▁Negro	-8230
▁Obrow	-8231
▁Offic	-8232
▁Palin	-8233
▁Ports	-8234
▁Prize	-8235
▁Ralph	-8236
▁Route	-8237
▁Sankt	-8238
▁Santi	-8239
▁Sarah	-8240
▁Stoke	-8241
▁Tello	-8242
▁Woman	-8243
▁Zukun	-8244
▁bands	-8245
▁begun	-8246
▁boats	-8247
▁brown	-8248
▁camps	-8249
▁chain	-8250
▁cycle	-8251
▁demon	-8252
▁draft	-8253
▁exams	-8254
▁faced	-8255
▁goals	-8256
▁grown	-8257
▁humor	-8258
▁ideas	-8259
▁image	-8260
▁males	-8261
▁meets	-8262
▁noble	-8263
▁oblig	-8264
▁optim	-8265
▁photo	-8266
▁quite	-8267
▁races	-8268
▁sever	-8269
▁sixth	-8270
▁theat	-8271
▁tried	-8272
▁unity	-8273
▁veter	-8274
acement	-8275
amental	-8276
cellent	-8277
ception	-8278
embered	-8279
emetery	-8280
endment	-8281
erville	-8282
ighting	-8283
ipelago	-8284
olition	-8285
ophobia	-8286
politan	-8287
ription	-8288
unction	-8289
western	-8290
▁(2004)	-8291
▁(2011)	-8292
▁(2013)	-8293
▁10,000	-8294
▁Altern	-8295
▁Alucra	-8296
▁Andrea	-8297
▁Autumn	-8298
▁Choice	-8299
▁Dewson	-8300
▁Disney	-8301
▁Econom	-8302
▁Energy	-8303
▁Friend	-8304
▁Geller	-8305
▁Graham	-8306
▁Jansen	-8307
▁Jewish	-8308
▁Lakhra	-8309
▁Maoist	-8310
▁Marcel	-8311
▁Mersin	-8312
▁Motene	-8313
▁Murder	-8314
▁Prophe	-8315
▁Puerto	-8316
▁Shangh	-8317
▁Surrey	-8318
▁Territ	-8319
▁Tomoya	-8320
▁Transl	-8321
▁anyone	-8322
▁approp	-8323
▁argued	-8324
▁beyond	-8325
▁causes	-8326
▁cooper	-8327
▁cruise	-8328
▁debate	-8329
▁doctor	-8330
▁expert	-8331
▁gained	-8332
▁grades	-8333
▁guilty	-8334
▁honour	-8335
▁lasted	-8336
▁legacy	-8337
▁losses	-8338
▁matter	-8339
▁motion	-8340
▁novels	-8341
▁occurs	-8342
▁preced	-8343
▁puppet	-8344
▁rescue	-8345
▁ruling	-8346
▁runner	-8347
▁script	-8348
▁simple	-8349
▁sought	-8350
▁themes	-8351
▁timber	-8352
▁unique	-8353
▁victim	-8354
▁volume	-8355
▁област	-8356
amboanga	-8357
atisfact	-8358
hematics	-8359
liminary	-8360
original	-8361
paratory	-8362
rigerant	-8363
▁Aradhna	-8364
▁Britain	-8365
▁Carcant	-8366
▁Charlie	-8367
▁Federal	-8368
▁Germans	-8369
▁Highway	-8370
▁Liberal	-8371
▁Ludwick	-8372
▁Madeira	-8373
▁Maguire	-8374
▁Middles	-8375
▁Monster	-8376
▁Parents	-8377
▁Patrick	-8378
▁Popular	-8379
▁Project	-8380
▁Protest	-8381
▁Reserve	-8382
▁Several	-8383
▁Singles	-8384
▁Slavery	-8385
▁Speaker	-8386
▁Strozzi	-8387
▁Vaughan	-8388
▁Village	-8389
▁assumed	-8390
▁backing	-8391
▁borders	-8392
▁closely	-8393
▁convent	-8394
▁covered	-8395
▁cruises	-8396
▁digital	-8397
▁disagre	-8398
▁driving	-8399
▁express	-8400
▁finding	-8401
▁funding	-8402
▁healing	-8403
▁helping	-8404
▁keeping	-8405
▁marched	-8406
▁message	-8407
▁minimal	-8408
▁nothing	-8409
▁objects	-8410
▁offices	-8411
▁picture	-8412
▁portion	-8413
▁pricing	-8414
▁privile	-8415
▁recover	-8416
▁regions	-8417
▁reports	-8418
▁setting	-8419
▁seventh	-8420
▁singing	-8421
▁starred	-8422
▁stopped	-8423
▁studios	-8424
▁unknown	-8425
▁venture	-8426
▁visited	-8427
including	-8428
irtschaft	-8429
ographics	-8430
schooling	-8431
struction	-8432
▁Catalino	-8433
▁Congress	-8434
▁Critical	-8435
▁Database	-8436
▁Director	-8437
▁Dunbrody	-8438
▁Frontier	-8439
▁Griffith	-8440
▁Hamilton	-8441
▁Heritage	-8442
▁Kentucky	-8443
▁Kuriyama	-8444
▁Mindanao	-8445
▁Monterey	-8446
▁Pergamon	-8447
▁Semporna	-8448
▁Services	-8449
▁Shelford	-8450
▁Superior	-8451
▁Thessaly	-8452
▁Tigernán	-8453
▁Verokron	-8454
▁Waitangi	-8455
▁Worrorra	-8456
▁actually	-8457
▁attempts	-8458
▁branches	-8459
▁breaking	-8460
▁bringing	-8461
▁ceremony	-8462
▁champion	-8463
▁civilian	-8464
▁claiming	-8465
▁contacts	-8466
▁creation	-8467
▁devotion	-8468
▁dynamics	-8469
▁educator	-8470
▁entrance	-8471
▁handling	-8472
▁happened	-8473
▁identify	-8474
▁merchant	-8475
▁monaster	-8476
▁offering	-8477
▁physical	-8478
▁politics	-8479
▁possibly	-8480
▁princess	-8481
▁probably	-8482
▁resulted	-8483
▁strength	-8484
▁suddenly	-8485
▁vertical	-8486
▁withdraw	-8487
▁withdrew	-8488
▁0264-0856	-8489
▁Associate	-8490
▁Brunswick	-8491
▁Catherine	-8492
▁Fortunati	-8493
▁Henderson	-8494
▁Hollywood	-8495
▁Socialism	-8496
▁ancestors	-8497
▁assistant	-8498
▁attacking	-8499
▁attending	-8500
▁classical	-8501
▁cognition	-8502
▁contained	-8503
▁discovery	-8504
▁elsewhere	-8505
▁emergency	-8506
▁excellent	-8507
▁execution	-8508
▁favourite	-8509
▁finishing	-8510
▁installed	-8511
▁knowledge	-8512
▁positions	-8513
▁presented	-8514
▁protected	-8515
▁reception	-8516
▁replacing	-8517
▁responses	-8518
▁testified	-8519
▁worldwide	-8520
▁Birmingham	-8521
▁Buckingham	-8522
▁Guantanamo	-8523
▁Lithuanian	-8524
▁Manchester	-8525
▁adaptation	-8526
▁describing	-8527
▁discipline	-8528
▁efficiency	-8529
▁inspection	-8530
▁photograph	-8531
▁profession	-8532
▁protection	-8533
▁provincial	-8534
▁systematic	-8535
▁Filmography	-8536
▁MetroLyrics	-8537
▁achievement	-8538
▁agriculture	-8539
▁appointment	-8540
▁destination	-8541
▁interviewed	-8542
▁involvement	-8543
▁opportunity	-8544
▁provocation	-8545
▁Architecture	-8546
▁Intelligence	-8547
▁Metropolitan	-8548
▁Shipbuilding	-8549
▁agricultural	-8550
▁experiencing	-8551
▁headquarters	-8552
▁intelligence	-8553
▁introduction	-8554
▁specifically	-8555
▁Intellectuals	-8556
▁characterized	-8557
▁circumstances	-8558
▁investigation	-8559
▁parliamentary	-8560
▁traditionally	-8561
▁representative	-8562
!!	-8563
-4	-8564
//	-8565
06	-8566
69	-8567
76	-8568
Ab	-8569
Bl	-8570
Ca	-8571
EL	-8572
GB	-8573
GS	-8574
Gu	-8575
IN	-8576
KJ	-8577
Le	-8578
MC	-8579
RS	-8580
We	-8581
bi	-8582
cs	-8583
lu	-8584
oa	-8585
po	-8586
yd	-8587
úr	-8588
ка	-8589
ро	-8590
”,	-8591
▁=	-8592
▁З	-8593
▁г	-8594
▁с	-8595
10)	-8596
100	-8597
20.	-8598
6).	-8599
BOQ	-8600
Big	-8601
Eng	-8602
Far	-8603
agu	-8604
bbe	-8605
car	-8606
cis	-8607
col	-8608
dia	-8609
eda	-8610
enh	-8611
eur	-8612
eus	-8613
gel	-8614
iab	-8615
iew	-8616
iph	-8617
ips	-8618
isa	-8619
ivo	-8620
kan	-8621
lov	-8622
mad	-8623
mbl	-8624
nes	-8625
onz	-8626
raq	-8627
rel	-8628
sec	-8629
see	-8630
sky	-8631
spe	-8632
uit	-8633
uri	-8634
utu	-8635
utz	-8636
war	-8637
xis	-8638
yth	-8639
zen	-8640
–),	-8641
▁(3	-8642
▁2-	-8643
▁44	-8644
▁53	-8645
▁56	-8646
▁CA	-8647
▁Ca	-8648
▁FA	-8649
▁Fa	-8650
▁Id	-8651
▁Ow	-8652
▁Wa	-8653
▁Ye	-8654
▁da	-8655
▁ft	-8656
▁ic	-8657
▁sn	-8658
▁wa	-8659
▁£2	-8660
4–19	-8661
Pool	-8662
Star	-8663
abar	-8664
aert	-8665
alli	-8666
amia	-8667
appy	-8668
aria	-8669
aron	-8670
asks	-8671
avig	-8672
ayer	-8673
berk	-8674
bett	-8675
cats	-8676
cles	-8677
come	-8678
cons	-8679
ecil	-8680
emen	-8681
enge	-8682
essa	-8683
etta	-8684
eway	-8685
fred	-8686
gang	-8687
gery	-8688
heid	-8689
icit	-8690
icro	-8691
idal	-8692
mare	-8693
mark	-8694
mine	-8695
mith	-8696
odge	-8697
orge	-8698
oshi	-8699
ouri	-8700
race	-8701
rell	-8702
ribe	-8703
rmal	-8704
rove	-8705
spec	-8706
sses	-8707
stad	-8708
sted	-8709
tere	-8710
text	-8711
type	-8712
umps	-8713
unar	-8714
unic	-8715
vens	-8716
ware	-8717
wept	-8718
wing	-8719
zhen	-8720
órsh	-8721
–197	-8722
▁(1)	-8723
▁150	-8724
▁154	-8725
▁28,	-8726
▁44,	-8727
▁Abb	-8728
▁Agg	-8729
▁Ave	-8730
▁Bin	-8731
▁Cag	-8732
▁DFC	-8733
▁DNS	-8734
▁Det	-8735
▁Die	-8736
▁Div	-8737
▁Doc	-8738
▁Dul	-8739
▁Esp	-8740
▁Fab	-8741
▁Fif	-8742
▁GAZ	-8743
▁Has	-8744
▁Hes	-8745
▁Jas	-8746
▁Kal	-8747
▁Kem	-8748
▁Kim	-8749
▁Kin	-8750
▁Las	-8751
▁Leh	-8752
▁Lov	-8753
▁MPs	-8754
▁Map	-8755
▁Múr	-8756
▁Nig	-8757
▁Pap	-8758
▁Pay	-8759
▁RNA	-8760
▁Raw	-8761
▁Rib	-8762
▁Rio	-8763
▁Stu	-8764
▁Sus	-8765
▁Tid	-8766
▁Von	-8767
▁Yor	-8768
▁Zor	-8769
▁bat	-8770
▁bow	-8771
▁cra	-8772
▁een	-8773
▁fan	-8774
▁gal	-8775
▁hot	-8776
▁iOS	-8777
▁mel	-8778
▁mit	-8779
▁mom	-8780
▁oak	-8781
▁pag	-8782
▁rob	-8783
▁sat	-8784
▁ski	-8785
▁try	-8786
▁tut	-8787
▁urg	-8788
▁wet	-8789
▁why	-8790
amber	-8791
amysh	-8792
atisf	-8793
babwe	-8794
being	-8795
bound	-8796
chers	-8797
comed	-8798
cript	-8799
cycle	-8800
domse	-8801
eatro	-8802
eenth	-8803
ensed	-8804
force	-8805
icket	-8806
ieval	-8807
igger	-8808
ilipp	-8809
inist	-8810
inter	-8811
istol	-8812
mblay	-8813
onies	-8814
place	-8815
press	-8816
raine	-8817
regon	-8818
rical	-8819
ships	-8820
stalk	-8821
sters	-8822
track	-8823
utsal	-8824
veyed	-8825
while	-8826
▁(193	-8827
▁(2):	-8828
▁(202	-8829
▁(3):	-8830
▁1/19	-8831
▁1900	-8832
▁1942	-8833
▁1955	-8834
▁1964	-8835
▁1968	-8836
▁Abra	-8837
▁Adam	-8838
▁Alas	-8839
▁Away	-8840
▁Benn	-8841
▁Berm	-8842
▁Body	-8843
▁Bowl	-8844
▁Bron	-8845
▁Cart	-8846
▁Deal	-8847
▁Dest	-8848
▁Eker	-8849
▁FIFA	-8850
▁Farm	-8851
▁Fine	-8852
▁Fund	-8853
▁Gael	-8854
▁Giov	-8855
▁Gord	-8856
▁Gram	-8857
▁Hokk	-8858
▁Hugo	-8859
▁Iraq	-8860
▁Jama	-8861
▁Jenn	-8862
▁Keen	-8863
▁Linn	-8864
▁Luis	-8865
▁Magd	-8866
▁Mand	-8867
▁Mang	-8868
▁Mega	-8869
▁Mohd	-8870
▁Mona	-8871
▁Mund	-8872
▁Near	-8873
▁Page	-8874
▁Pels	-8875
▁Phot	-8876
▁Poet	-8877
▁Raid	-8878
▁Rico	-8879
▁Ring	-8880
▁Rise	-8881
▁Ronn	-8882
▁Ruth	-8883
▁Semi	-8884
▁Shop	-8885
▁Supp	-8886
▁UEFA	-8887
▁Umar	-8888
▁Vent	-8889
▁Vice	-8890
▁Vlad	-8891
▁Wick	-8892
▁Wins	-8893
▁bell	-8894
▁burn	-8895
▁cert	-8896
▁conj	-8897
▁doll	-8898
▁exam	-8899
▁fear	-8900
▁gang	-8901
▁gets	-8902
▁jobs	-8903
▁laid	-8904
▁loan	-8905
▁lose	-8906
▁merg	-8907
▁mind	-8908
▁prol	-8909
▁samp	-8910
▁save	-8911
▁sket	-8912
▁sort	-8913
▁stra	-8914
▁task	-8915
▁teen	-8916
▁ties	-8917
▁till	-8918
▁vacc	-8919
▁vide	-8920
▁virt	-8921
German	-8922
Ruairc	-8923
amburg	-8924
brough	-8925
ctoral	-8926
ctuary	-8927
ferred	-8928
finals	-8929
fortun	-8930
icians	-8931
iented	-8932
iochus	-8933
isoned	-8934
itting	-8935
length	-8936
making	-8937
manuel	-8938
ndrome	-8939
ockout	-8940
ronomy	-8941
▁1902)	-8942
▁1903)	-8943
▁1919)	-8944
▁1944,	-8945
▁1964)	-8946
▁1979,	-8947
▁1981.	-8948
▁1986.	-8949
▁1987,	-8950
▁1994,	-8951
▁1995,	-8952
▁1995.	-8953
▁2000.	-8954
▁2002,	-8955
▁2005.	-8956
▁Abdul	-8957
▁Adams	-8958
▁Advis	-8959
▁Anast	-8960
▁Audio	-8961
▁Banks	-8962
▁Billy	-8963
▁Chron	-8964
▁Conqu	-8965
▁Eddie	-8966
▁Eight	-8967
▁Ellen	-8968
▁Fleet	-8969
▁Frost	-8970
▁Giant	-8971
▁Glory	-8972
▁Johor	-8973
▁Judge	-8974
▁Laden	-8975
▁Lakes	-8976
▁Langu	-8977
▁Maori	-8978
▁Marie	-8979
▁Nikol	-8980
▁Peace	-8981
▁Pearl	-8982
▁Pedro	-8983
▁Pille	-8984
▁Pilot	-8985
▁Rhode	-8986
▁Rural	-8987
▁Salle	-8988
▁Sixth	-8989
▁Smart	-8990
▁Solid	-8991
▁Speed	-8992
▁Steel	-8993
▁Syria	-8994
▁Takia	-8995
▁Tokht	-8996
▁Tórsh	-8997
▁Welsh	-8998
▁bases	-8999
▁begin	-9000
▁catch	-9001
▁deliv	-9002
▁doesn	-9003
▁flows	-9004
▁green	-9005
▁grows	-9006
▁hired	-9007
▁horse	-9008
▁liber	-9009
▁loved	-9010
▁motor	-9011
▁paint	-9012
▁pazza	-9013
▁phase	-9014
▁pione	-9015
▁raped	-9016
▁recip	-9017
▁recon	-9018
▁remov	-9019
▁rural	-9020
▁shrub	-9021
▁sites	-9022
▁slash	-9023
▁tests	-9024
▁theme	-9025
▁trend	-9026
▁Тюмен	-9027
October	-9028
aughter	-9029
avasdes	-9030
brother	-9031
entieth	-9032
founded	-9033
igrants	-9034
inction	-9035
lection	-9036
lective	-9037
ogether	-9038
onymous	-9039
oration	-9040
ostolic	-9041
otherap	-9042
ruption	-9043
ulation	-9044
viously	-9045
▁Agency	-9046
▁Albany	-9047
▁Amstel	-9048
▁Around	-9049
▁Athens	-9050
▁Ayberk	-9051
▁Baloch	-9052
▁Bastık	-9053
▁Browns	-9054
▁Brunei	-9055
▁Carter	-9056
▁Domain	-9057
▁Dublin	-9058
▁Freder	-9059
▁Giants	-9060
▁Helena	-9061
▁Horace	-9062
▁Jacobs	-9063
▁Johann	-9064
▁Kansas	-9065
▁Landes	-9066
▁Lardie	-9067
▁Lizzie	-9068
▁Marion	-9069
▁Múrtha	-9070
▁Naples	-9071
▁Nathan	-9072
▁Nether	-9073
▁Parker	-9074
▁Rhodes	-9075
▁Savage	-9076
▁Spirit	-9077
▁Taylor	-9078
▁Teatro	-9079
▁Trauma	-9080
▁Tyumen	-9081
▁Valent	-9082
▁Wiebbe	-9083
▁Within	-9084
▁archae	-9085
▁awards	-9086
▁banned	-9087
▁belief	-9088
▁bodies	-9089
▁budget	-9090
▁chosen	-9091
▁decade	-9092
▁decide	-9093
▁diving	-9094
▁encoun	-9095
▁enlarg	-9096
▁entity	-9097
▁immigr	-9098
▁invent	-9099
▁junior	-9100
▁lawyer	-9101
▁marath	-9102
▁median	-9103
▁medium	-9104
▁normal	-9105
▁palace	-9106
▁parent	-9107
▁prints	-9108
▁prophe	-9109
▁propos	-9110
▁proved	-9111
▁ransom	-9112
▁recomm	-9113
▁roster	-9114
▁scheme	-9115
▁settle	-9116
▁spoken	-9117
▁statue	-9118
▁strain	-9119
▁strict	-9120
▁struct	-9121
▁subsid	-9122
▁superv	-9123
▁switch	-9124
▁tempor	-9125
▁toward	-9126
▁twenty	-9127
▁venues	-9128
▁visual	-9129
▁widely	-9130
ancellor	-9131
ceptions	-9132
formance	-9133
inations	-9134
iterrane	-9135
partisan	-9136
verdomse	-9137
▁(2003),	-9138
▁(2017),	-9139
▁Austron	-9140
▁Bengali	-9141
▁Bradley	-9142
▁Cabinet	-9143
▁Colonel	-9144
▁Feature	-9145
▁Gallery	-9146
▁Gardens	-9147
▁Hunting	-9148
▁Jacques	-9149
▁Letters	-9150
▁Linnane	-9151
▁Mariano	-9152
▁Maryada	-9153
▁Morning	-9154
▁Nothing	-9155
▁Perseus	-9156
▁Players	-9157
▁Princip	-9158
▁Ptolemy	-9159
▁Quarter	-9160
▁Ribault	-9161
▁Section	-9162
▁Switzer	-9163
▁Ukraine	-9164
▁Ulysses	-9165
▁Without	-9166
▁accused	-9167
▁achieve	-9168
▁advance	-9169
▁affairs	-9170
▁applied	-9171
▁assists	-9172
▁barcode	-9173
▁cabinet	-9174
▁capture	-9175
▁classes	-9176
▁clearly	-9177
▁climate	-9178
▁compete	-9179
▁concent	-9180
▁contrad	-9181
▁diverse	-9182
▁earning	-9183
▁emperor	-9184
▁erected	-9185
▁factors	-9186
▁fifteen	-9187
▁genetic	-9188
▁greatly	-9189
▁housing	-9190
▁joining	-9191
▁learned	-9192
▁longest	-9193
▁luggage	-9194
▁maximum	-9195
▁missing	-9196
▁montana	-9197
▁numbers	-9198
▁operate	-9199
▁persons	-9200
▁proceed	-9201
▁purpose	-9202
▁renamed	-9203
▁reveals	-9204
▁scoring	-9205
▁sending	-9206
▁stating	-9207
▁streams	-9208
▁theater	-9209
▁trained	-9210
▁unclear	-9211
▁vessels	-9212
establish	-9213
literally	-9214
ributions	-9215
▁Aetolian	-9216
▁Boulogne	-9217
▁Brothers	-9218
▁Campaign	-9219
▁Ekerwald	-9220
▁Fighting	-9221
▁Hokkaido	-9222
▁Homeward	-9223
▁Hospital	-9224
▁Immanent	-9225
▁Lawrence	-9226
▁Missouri	-9227
▁Pelsaert	-9228
▁Pillemer	-9229
▁Practice	-9230
▁Regional	-9231
▁Sasanian	-9232
▁Shanghai	-9233
▁Springer	-9234
▁Stanford	-9235
▁Stirling	-9236
▁Tremblay	-9237
▁Tórshavn	-9238
▁accounts	-9239
▁activism	-9240
▁advocate	-9241
▁aircraft	-9242
▁anything	-9243
▁apparent	-9244
▁approval	-9245
▁argument	-9246
▁bachelor	-9247
▁compiled	-9248
▁constitu	-9249
▁declined	-9250
▁demonstr	-9251
▁describe	-9252
▁existing	-9253
▁frequent	-9254
▁garrison	-9255
▁interior	-9256
▁internal	-9257
▁kingdoms	-9258
▁mainland	-9259
▁mandolin	-9260
▁medieval	-9261
▁occupied	-9262
▁pictures	-9263
▁recalled	-9264
▁relative	-9265
▁solution	-9266
▁struggle	-9267
▁substant	-9268
▁teachers	-9269
▁theories	-9270
▁violence	-9271
▁welcomed	-9272
governance	-9273
▁Elections	-9274
▁Executive	-9275
▁Explosion	-9276
▁Financial	-9277
▁Mongolian	-9278
▁Reference	-9279
▁Regulated	-9280
▁Tennessee	-9281
▁Territory	-9282
▁Zamboanga	-9283
▁aftermath	-9284
▁automated	-9285
▁behaviour	-9286
▁celebrate	-9287
▁cognitive	-9288
▁component	-9289
▁concerned	-9290
▁condition	-9291
▁defeating	-9292
▁educating	-9293
▁equipment	-9294
▁followers	-9295
▁frequency	-9296
▁interests	-9297
▁materials	-9298
▁monastery	-9299
▁mountains	-9300
▁movements	-9301
▁nominated	-9302
▁perceived	-9303
▁personnel	-9304
▁preserved	-9305
▁producing	-9306
▁regularly	-9307
▁sectional	-9308
▁sentenced	-9309
▁shipwreck	-9310
▁suspended	-9311
▁travelled	-9312
▁treatment	-9313
▁unsuccess	-9314
▁Aboriginal	-9315
▁Artavasdes	-9316
▁Lieutenant	-9317
▁Paralympic	-9318
▁Restaurant	-9319
▁Sinophobia	-9320
▁Television	-9321
▁Tokhtamysh	-9322
▁Tournament	-9323
▁allegiance	-9324
▁ambassador	-9325
▁architects	-9326
▁condensate	-9327
▁confidence	-9328
▁consisting	-9329
▁destroying	-9330
▁determined	-9331
▁dispatched	-9332
▁eliminated	-9333
▁industrial	-9334
▁legitimate	-9335
▁qualifying	-9336
▁recognized	-9337
▁recordings	-9338
▁remembered	-9339
▁struggling	-9340
▁transition	-9341
▁Corporation	-9342
▁Educational	-9343
▁Netherlands	-9344
▁Preparatory	-9345
▁Reformation	-9346
▁Switzerland	-9347
▁collections	-9348
▁composition	-9349
▁distributed	-9350
▁elimination	-9351
▁governments	-9352
▁identifying	-9353
▁instruction	-9354
▁maintaining	-9355
▁plantations	-9356
▁populations	-9357
▁potentially	-9358
▁programming	-9359
▁recognition	-9360
▁Broadcasting	-9361
▁Demographics	-9362
▁arrangements	-9363
▁considerable	-9364
▁contribution	-9365
▁improvements	-9366
▁installation	-9367
▁occasionally	-9368
▁Middlesbrough	-9369
▁distinguished	-9370
▁constitutional	-9371
▁infrastructure	-9372
'"	-9373
-2	-9374
03	-9375
1]	-9376
3/	-9377
4%	-9378
44	-9379
92	-9380
?"	-9381
Cl	-9382
De	-9383
IA	-9384
KC	-9385
NN	-9386
OC	-9387
ST	-9388
XX	-9389
],	-9390
].	-9391
gi	-9392
tı	-9393
xy	-9394
zc	-9395
óg	-9396
üh	-9397
ра	-9398
▁|	-9399
▁É	-9400
▁İ	-9401
▁Б	-9402
二郎	-9403
麒麟	-9404
1-0	-9405
15.	-9406
Con	-9407
Min	-9408
SCO	-9409
aby	-9410
ags	-9411
aku	-9412
alu	-9413
bal	-9414
boy	-9415
coh	-9416
cur	-9417
emn	-9418
erb	-9419
ext	-9420
fly	-9421
hav	-9422
ici	-9423
imo	-9424
las	-9425
lew	-9426
lez	-9427
met	-9428
nem	-9429
odd	-9430
omo	-9431
orf	-9432
orh	-9433
osc	-9434
osm	-9435
pes	-9436
rat	-9437
rei	-9438
rif	-9439
sex	-9440
ski	-9441
uid	-9442
una	-9443
ups	-9444
uru	-9445
vas	-9446
zan	-9447
zon	-9448
écs	-9449
ões	-9450
–10	-9451
–16	-9452
▁$2	-9453
▁(1	-9454
▁(5	-9455
▁2/	-9456
▁35	-9457
▁3–	-9458
▁48	-9459
▁52	-9460
▁54	-9461
▁Ek	-9462
▁Fu	-9463
▁Iv	-9464
▁MV	-9465
▁NI	-9466
▁Oc	-9467
▁Ug	-9468
▁Wy	-9469
▁af	-9470
▁ca	-9471
▁óg	-9472
000.	-9473
22),	-9474
Caor	-9475
Page	-9476
abel	-9477
acco	-9478
ader	-9479
agal	-9480
akam	-9481
alan	-9482
alia	-9483
angs	-9484
apse	-9485
aqif	-9486
aris	-9487
asis	-9488
baij	-9489
bank	-9490
bide	-9491
bled	-9492
char	-9493
comm	-9494
duke	-9495
enez	-9496
enia	-9497
eown	-9498
eras	-9499
erts	-9500
etri	-9501
even	-9502
gest	-9503
haps	-9504
hsen	-9505
icts	-9506
idin	-9507
iler	-9508
illa	-9509
iman	-9510
imir	-9511
ints	-9512
inui	-9513
kova	-9514
lean	-9515
long	-9516
look	-9517
maic	-9518
oard	-9519
oche	-9520
ocol	-9521
omon	-9522
onia	-9523
pany	-9524
rayn	-9525
riso	-9526
rope	-9527
star	-9528
uhan	-9529
unte	-9530
ylum	-9531
ædia	-9532
–199	-9533
–201	-9534
▁109	-9535
▁135	-9536
▁176	-9537
▁358	-9538
▁400	-9539
▁80-	-9540
▁AKJ	-9541
▁Are	-9542
▁Aur	-9543
▁CBS	-9544
▁Cab	-9545
▁Das	-9546
▁DeP	-9547
▁Dir	-9548
▁Eld	-9549
▁Fav	-9550
▁Fel	-9551
▁Hus	-9552
▁Isa	-9553
▁Kas	-9554
▁Kel	-9555
▁Lic	-9556
▁Mim	-9557
▁Nad	-9558
▁Pra	-9559
▁Raj	-9560
▁Rav	-9561
▁Rot	-9562
▁Rum	-9563
▁SIE	-9564
▁Sie	-9565
▁Sum	-9566
▁Tob	-9567
▁Wed	-9568
▁adm	-9569
▁ago	-9570
▁ask	-9571
▁axi	-9572
▁bal	-9573
▁bid	-9574
▁eds	-9575
▁ein	-9576
▁fee	-9577
▁ign	-9578
▁liv	-9579
▁lov	-9580
▁lun	-9581
▁nuc	-9582
▁pul	-9583
▁rit	-9584
▁tot	-9585
Japan	-9586
aldiv	-9587
anges	-9588
ardan	-9589
arity	-9590
arnan	-9591
atchy	-9592
ategy	-9593
ayune	-9594
azing	-9595
cohol	-9596
eburg	-9597
ector	-9598
edict	-9599
enger	-9600
ening	-9601
estic	-9602
etime	-9603
idesp	-9604
ifies	-9605
iform	-9606
imens	-9607
imura	-9608
inate	-9609
ining	-9610
inity	-9611
iques	-9612
iress	-9613
isive	-9614
jiang	-9615
kelly	-9616
kingh	-9617
lawny	-9618
legal	-9619
liest	-9620
merce	-9621
nders	-9622
ocese	-9623
odera	-9624
ospit	-9625
owned	-9626
panic	-9627
prise	-9628
puted	-9629
rades	-9630
ranch	-9631
rated	-9632
rican	-9633
riday	-9634
rodes	-9635
sacid	-9636
sburg	-9637
trans	-9638
ulate	-9639
umboh	-9640
unity	-9641
usion	-9642
which	-9643
woman	-9644
▁(195	-9645
▁1880	-9646
▁1889	-9647
▁1898	-9648
▁1926	-9649
▁1931	-9650
▁1935	-9651
▁1936	-9652
▁1961	-9653
▁1962	-9654
▁1977	-9655
▁1995	-9656
▁Azer	-9657
▁Blum	-9658
▁Bong	-9659
▁Bour	-9660
▁Brun	-9661
▁Bécs	-9662
▁Cape	-9663
▁Care	-9664
▁Cass	-9665
▁Chan	-9666
▁Core	-9667
▁Cott	-9668
▁Dart	-9669
▁Dead	-9670
▁Dean	-9671
▁Emil	-9672
▁Emma	-9673
▁Evel	-9674
▁Fame	-9675
▁Fenn	-9676
▁Foot	-9677
▁Gonz	-9678
▁Gulf	-9679
▁Hind	-9680
▁Hull	-9681
▁Jews	-9682
▁Laub	-9683
▁Leaf	-9684
▁Less	-9685
▁Like	-9686
▁Lunt	-9687
▁Mats	-9688
▁Maur	-9689
▁Mead	-9690
▁Mine	-9691
▁Mort	-9692
▁Nord	-9693
▁Pain	-9694
▁Rele	-9695
▁Rhin	-9696
▁Rond	-9697
▁Serb	-9698
▁Snow	-9699
▁Tamp	-9700
▁Tore	-9701
▁Trio	-9702
▁Vert	-9703
▁WBOQ	-9704
▁Wing	-9705
▁aims	-9706
▁apps	-9707
▁batt	-9708
▁bear	-9709
▁chef	-9710
▁clim	-9711
▁dang	-9712
▁deer	-9713
▁dies	-9714
▁drag	-9715
▁drew	-9716
▁eyes	-9717
▁flat	-9718
▁flex	-9719
▁frag	-9720
▁fram	-9721
▁gene	-9722
▁gone	-9723
▁gram	-9724
▁hole	-9725
▁huge	-9726
▁isom	-9727
▁jail	-9728
▁jump	-9729
▁leak	-9730
▁legs	-9731
▁lies	-9732
▁meat	-9733
▁oral	-9734
▁pale	-9735
▁pour	-9736
▁punk	-9737
▁pure	-9738
▁shel	-9739
▁soft	-9740
▁suff	-9741
▁tact	-9742
▁thro	-9743
▁trou	-9744
▁warn	-9745
Donald	-9746
Honour	-9747
ampton	-9748
around	-9749
artial	-9750
ashion	-9751
avalry	-9752
baijan	-9753
cepted	-9754
ellers	-9755
encing	-9756
endent	-9757
enfeld	-9758
formed	-9759
hedral	-9760
idamia	-9761
idhlim	-9762
iernan	-9763
insula	-9764
ipping	-9765
istant	-9766
isters	-9767
ongues	-9768
opatra	-9769
racuse	-9770
ritage	-9771
terior	-9772
thlete	-9773
▁(2013	-9774
▁1913)	-9775
▁1965,	-9776
▁1972,	-9777
▁1983,	-9778
▁1989,	-9779
▁1990,	-9780
▁1993.	-9781
▁1999,	-9782
▁2001,	-9783
▁2018.	-9784
▁Ahsen	-9785
▁Amrit	-9786
▁Birch	-9787
▁Birth	-9788
▁Blank	-9789
▁Bobby	-9790
▁Bryan	-9791
▁Burns	-9792
▁Cecil	-9793
▁Claud	-9794
▁Corps	-9795
▁Dixon	-9796
▁Ebbot	-9797
▁Exhib	-9798
▁Films	-9799
▁Halle	-9800
▁Heart	-9801
▁Helen	-9802
▁Henri	-9803
▁Hutch	-9804
▁Inver	-9805
▁Jamie	-9806
▁Kenta	-9807
▁Lough	-9808
▁Lunar	-9809
▁Mitch	-9810
▁Never	-9811
▁Novel	-9812
▁Opera	-9813
▁Orang	-9814
▁Point	-9815
▁Poker	-9816
▁SIBAM	-9817
▁Saxon	-9818
▁Shing	-9819
▁Silva	-9820
▁Those	-9821
▁Tower	-9822
▁Tuhan	-9823
▁Tyson	-9824
▁Zelen	-9825
▁agree	-9826
▁aware	-9827
▁categ	-9828
▁chart	-9829
▁coins	-9830
▁comed	-9831
▁costs	-9832
▁crash	-9833
▁crowd	-9834
▁depic	-9835
▁depth	-9836
▁discl	-9837
▁displ	-9838
▁eaten	-9839
▁enter	-9840
▁exact	-9841
▁favor	-9842
▁filed	-9843
▁flood	-9844
▁fresh	-9845
▁gCaor	-9846
▁giant	-9847
▁limit	-9848
▁liner	-9849
▁loses	-9850
▁metal	-9851
▁micro	-9852
▁mouth	-9853
▁ninth	-9854
▁paths	-9855
▁persp	-9856
▁print	-9857
▁prize	-9858
▁reass	-9859
▁rebel	-9860
▁recru	-9861
▁rifle	-9862
▁rooms	-9863
▁ruler	-9864
▁shall	-9865
▁stint	-9866
▁tight	-9867
▁tries	-9868
▁urban	-9869
▁voice	-9870
Palatin	-9871
Philipp	-9872
agonist	-9873
areness	-9874
ilitate	-9875
ishment	-9876
istries	-9877
nership	-9878
orphism	-9879
rainian	-9880
resents	-9881
ressive	-9882
ributor	-9883
tenance	-9884
theless	-9885
usually	-9886
–2022),	-9887
▁(1991)	-9888
▁Adolph	-9889
▁Argyll	-9890
▁Attica	-9891
▁Bowman	-9892
▁Bulgar	-9893
▁Currey	-9894
▁Dardan	-9895
▁Darwin	-9896
▁Events	-9897
▁Finals	-9898
▁Foster	-9899
▁Friday	-9900
▁Futsal	-9901
▁Gaelic	-9902
▁Global	-9903
▁Gorman	-9904
▁Harold	-9905
▁Herman	-9906
▁Hewitt	-9907
▁Higher	-9908
▁Impact	-9909
▁Julian	-9910
▁Kavkaz	-9911
▁Kozhen	-9912
▁Legacy	-9913
▁Legend	-9914
▁Mennon	-9915
▁Munich	-9916
▁Observ	-9917
▁Oregon	-9918
▁Origin	-9919
▁Orodes	-9920
▁Ottawa	-9921
▁Policy	-9922
▁Romero	-9923
▁Sculpt	-9924
▁Sevent	-9925
▁Source	-9926
▁Strath	-9927
▁Taiwan	-9928
▁Talent	-9929
▁Temple	-9930
▁Tennis	-9931
▁Thaqif	-9932
▁Ulster	-9933
▁Unlike	-9934
▁Wilson	-9935
▁Wonder	-9936
▁abroad	-9937
▁accord	-9938
▁actual	-9939
▁affect	-9940
▁allied	-9941
▁armies	-9942
▁asking	-9943
▁attach	-9944
▁ballot	-9945
▁batter	-9946
▁betray	-9947
▁bomber	-9948
▁bought	-9949
▁cancer	-9950
▁carbon	-9951
▁compar	-9952
▁corner	-9953
▁courts	-9954
▁crimes	-9955
▁crisis	-9956
▁deeply	-9957
▁desire	-9958
▁devast	-9959
▁device	-9960
▁disapp	-9961
▁empire	-9962
▁gender	-9963
▁humili	-9964
▁inside	-9965
▁intent	-9966
▁labour	-9967
▁latest	-9968
▁levels	-9969
▁margin	-9970
▁memory	-9971
▁mirror	-9972
▁moment	-9973
▁operas	-9974
▁orient	-9975
▁owners	-9976
▁photos	-9977
▁picked	-9978
▁prepar	-9979
▁racism	-9980
▁radial	-9981
▁rating	-9982
▁reconc	-9983
▁riding	-9984
▁rounds	-9985
▁salary	-9986
▁shield	-9987
▁signal	-9988
▁slowly	-9989
▁stolen	-9990
▁stroke	-9991
▁struck	-9992
▁suburb	-9993
▁summar	-9994
▁tested	-9995
▁thesis	-9996
▁tribal	-9997
▁undert	-9998
▁values	-9999
▁videos	-10000
▁weekly	-10001
▁widesp	-10002
▁wonder	-10003
aneously	-10004
ertation	-10005
ilingual	-10006
itioners	-10007
oriented	-10008
▁(2004),	-10009
▁(2005),	-10010
▁(2019),	-10011
▁(2020).	-10012
▁2023–24	-10013
▁Abraham	-10014
▁Acarnan	-10015
▁Airport	-10016
▁Alexand	-10017
▁Bahrayn	-10018
▁Ballach	-10019
▁Belgium	-10020
▁Bishops	-10021
▁Bristol	-10022
▁Cameron	-10023
▁Demetri	-10024
▁Fantasy	-10025
▁Iranica	-10026
▁Knights	-10027
▁Marling	-10028
▁McKeown	-10029
▁Mississ	-10030
▁Montene	-10031
▁Natural	-10032
▁Nikolai	-10033
▁Olympic	-10034
▁Onodera	-10035
▁Ottoman	-10036
▁Provins	-10037
▁Results	-10038
▁Rockies	-10039
▁Shortly	-10040
▁Sorriso	-10041
▁Torelli	-10042
▁Villius	-10043
▁amongst	-10044
▁arrival	-10045
▁believe	-10046
▁biology	-10047
▁cavalry	-10048
▁context	-10049
▁correct	-10050
▁counter	-10051
▁credits	-10052
▁delayed	-10053
▁dynamic	-10054
▁emerged	-10055
▁evening	-10056
▁feather	-10057
▁females	-10058
▁fiction	-10059
▁filming	-10060
▁knowing	-10061
▁lateral	-10062
▁leagues	-10063
▁looking	-10064
▁loyalty	-10065
▁lunches	-10066
▁machine	-10067
▁methods	-10068
▁monarch	-10069
▁nomadic	-10070
▁opinion	-10071
▁origins	-10072
▁painted	-10073
▁placing	-10074
▁raising	-10075
▁reigned	-10076
▁remarks	-10077
▁roughly	-10078
▁sailing	-10079
▁seconds	-10080
▁sitting	-10081
▁theatre	-10082
▁theolog	-10083
▁tourism	-10084
▁univers	-10085
▁updated	-10086
▁walking	-10087
▁weekend	-10088
▁wounded	-10089
September	-10090
idhlimidh	-10091
kinghorne	-10092
rophysics	-10093
▁Accepted	-10094
▁Achilles	-10095
▁Anastasi	-10096
▁Archduke	-10097
▁Benedict	-10098
▁Capitals	-10099
▁Cemetery	-10100
▁Facility	-10101
▁Favorite	-10102
▁Giovanni	-10103
▁Glenwood	-10104
▁Kilkelly	-10105
▁Laubrock	-10106
▁Literary	-10107
▁Phillies	-10108
▁Religion	-10109
▁Syracuse	-10110
▁Takaichi	-10111
▁Trelawny	-10112
▁Wolfgang	-10113
▁Zimbabwe	-10114
▁Zukunfts	-10115
▁besieged	-10116
▁boundary	-10117
▁creative	-10118
▁cylinder	-10119
▁delivery	-10120
▁designer	-10121
▁earliest	-10122
▁enlisted	-10123
▁explored	-10124
▁feminist	-10125
▁founding	-10126
▁friendly	-10127
▁grateful	-10128
▁heritage	-10129
▁identity	-10130
▁novelist	-10131
▁produces	-10132
▁promised	-10133
▁prospect	-10134
▁refugees	-10135
▁relevant	-10136
▁sessions	-10137
▁speaking	-10138
▁strategy	-10139
▁suitable	-10140
▁syndrome	-10141
▁tracking	-10142
▁traveled	-10143
▁trustees	-10144
▁upgrades	-10145
▁versions	-10146
▁wildlife	-10147
▁woodland	-10148
Palatinate	-10149
ographical	-10150
▁Antiochus	-10151
▁Argentine	-10152
▁Cleopatra	-10153
▁Communist	-10154
▁Evergreen	-10155
▁Francesco	-10156
▁Frederick	-10157
▁Marketing	-10158
▁McClatchy	-10159
▁Monterrey	-10160
▁Ptolemaic	-10161
▁Registrar	-10162
▁Rhineland	-10163
▁Victorian	-10164
▁advocated	-10165
▁appearing	-10166
▁associate	-10167
▁awareness	-10168
▁biography	-10169
▁conscious	-10170
▁decisions	-10171
▁decorated	-10172
▁delivered	-10173
▁descended	-10174
▁disciples	-10175
▁dissolved	-10176
▁emotional	-10177
▁encourage	-10178
▁explained	-10179
▁flowering	-10180
▁functions	-10181
▁improving	-10182
▁landscape	-10183
▁mandatory	-10184
▁organised	-10185
▁predecess	-10186
▁providing	-10187
▁residence	-10188
▁saxophone	-10189
▁sentences	-10190
▁strategic	-10191
▁technical	-10192
▁witnesses	-10193
Philippines	-10194
▁Azerbaijan	-10195
▁Dictionary	-10196
▁Exhibition	-10197
▁Kozhenkova	-10198
▁Operations	-10199
▁Psychology	-10200
▁Publishers	-10201
▁Technology	-10202
▁Yugoslavia	-10203
▁automobile	-10204
▁candidates	-10205
▁classified	-10206
▁collective	-10207
▁collegiate	-10208
▁concerning	-10209
▁conspiracy	-10210
▁developing	-10211
▁difference	-10212
▁everything	-10213
▁frequently	-10214
▁girlfriend	-10215
▁headmaster	-10216
▁initiative	-10217
▁mainstream	-10218
▁percentage	-10219
▁personally	-10220
▁philosophy	-10221
▁privileges	-10222
▁properties	-10223
▁references	-10224
▁represents	-10225
▁semifinals	-10226
▁translator	-10227
▁widespread	-10228
▁Archipelago	-10229
▁Composition	-10230
▁Feidhlimidh	-10231
▁Lokavibhaga	-10232
▁Mediterrane	-10233
▁Performance	-10234
▁adaptations	-10235
▁application	-10236
▁appropriate	-10237
▁celebration	-10238
▁conjunction	-10239
▁coordinator	-10240
▁individuals	-10241
▁inhabitants	-10242
▁isomorphism	-10243
▁ministerial	-10244
▁refrigerant	-10245
▁translation	-10246
▁Austronesian	-10247
▁Conservation	-10248
▁Encyclopedia	-10249
▁Encyclopædia	-10250
▁Municipality	-10251
▁Polkinghorne	-10252
▁applications	-10253
▁architecture	-10254
▁broadcasting	-10255
▁celebrations	-10256
▁conservative	-10257
▁distribution	-10258
▁increasingly	-10259
▁manufacturer	-10260
▁presidential	-10261
▁psychotherap	-10262
▁Championships	-10263
▁architectural	-10264
▁cognitionibus	-10265
▁environmental	-10266
▁Administrative	-10267
▁municipalities	-10268
▁representatives	-10269
!,	-10270
":	-10271
%.	-10272
')	-10273
'.	-10274
.2	-10275
09	-10276
54	-10277
7-	-10278
7/	-10279
91	-10280
CP	-10281
ER	-10282
Ex	-10283
Im	-10284
Lt	-10285
No	-10286
PE	-10287
PF	-10288
PN	-10289
SD	-10290
SI	-10291
SW	-10292
Sc	-10293
So	-10294
Tr	-10295
UN	-10296
UT	-10297
di	-10298
dy	-10299
mb	-10300
ns	-10301
rh	-10302
sm	-10303
tu	-10304
{{	-10305
ál	-10306
âm	-10307
är	-10308
ém	-10309
ör	-10310
ев	-10311
ил	-10312
▁x	-10313
▁°	-10314
▁Ç	-10315
▁Ş	-10316
▁В	-10317
▁м	-10318
-16	-10319
/.3	-10320
002	-10321
4):	-10322
882	-10323
Car	-10324
FRS	-10325
Har	-10326
His	-10327
Lou	-10328
Pro	-10329
Que	-10330
TIN	-10331
Tub	-10332
Tur	-10333
aci	-10334
afe	-10335
agh	-10336
agi	-10337
agm	-10338
ahe	-10339
aho	-10340
bas	-10341
bin	-10342
cat	-10343
cen	-10344
cks	-10345
cul	-10346
ede	-10347
eer	-10348
eli	-10349
esc	-10350
far	-10351
fia	-10352
gio	-10353
gow	-10354
gue	-10355
haw	-10356
hol	-10357
hon	-10358
hre	-10359
ibb	-10360
idi	-10361
ido	-10362
iem	-10363
ige	-10364
igs	-10365
ikh	-10366
iki	-10367
iri	-10368
kar	-10369
kus	-10370
lan	-10371
lis	-10372
mel	-10373
nal	-10374
nic	-10375
non	-10376
obe	-10377
oka	-10378
omi	-10379
ovo	-10380
pet	-10381
pop	-10382
rer	-10383
rog	-10384
sch	-10385
sea	-10386
she	-10387
sim	-10388
sor	-10389
tot	-10390
tra	-10391
tuğ	-10392
uke	-10393
uku	-10394
uli	-10395
weg	-10396
who	-10397
yte	-10398
zer	-10399
ако	-10400
аль	-10401
–23	-10402
▁1-	-10403
▁1–	-10404
▁39	-10405
▁6–	-10406
▁85	-10407
▁93	-10408
▁Cz	-10409
▁Dj	-10410
▁Dą	-10411
▁Hu	-10412
▁Py	-10413
▁SG	-10414
▁Tu	-10415
▁Ze	-10416
▁au	-10417
▁cm	-10418
▁fo	-10419
▁ha	-10420
▁iP	-10421
▁ru	-10422
+1⁄3	-10423
CANN	-10424
CSOM	-10425
Fran	-10426
Love	-10427
Mart	-10428
Thom	-10429
With	-10430
afts	-10431
aica	-10432
alam	-10433
alem	-10434
anee	-10435
ansa	-10436
aolo	-10437
aras	-10438
arde	-10439
asch	-10440
atsu	-10441
bats	-10442
bone	-10443
calf	-10444
case	-10445
cuss	-10446
disc	-10447
door	-10448
earn	-10449
edat	-10450
eded	-10451
enza	-10452
eses	-10453
esle	-10454
eton	-10455
etti	-10456
five	-10457
furt	-10458
halt	-10459
helm	-10460
help	-10461
iary	-10462
icht	-10463
idad	-10464
iday	-10465
ikes	-10466
iliş	-10467
inas	-10468
iors	-10469
ippi	-10470
iser	-10471
ithm	-10472
iyar	-10473
izen	-10474
izer	-10475
ière	-10476
lets	-10477
leys	-10478
lock	-10479
nell	-10480
oast	-10481
odox	-10482
okes	-10483
oled	-10484
olia	-10485
olve	-10486
opal	-10487
orno	-10488
otee	-10489
phal	-10490
phew	-10491
ptic	-10492
rand	-10493
rano	-10494
rape	-10495
rati	-10496
rets	-10497
roid	-10498
song	-10499
thin	-10500
ture	-10501
ucid	-10502
uebl	-10503
uted	-10504
velt	-10505
vich	-10506
whel	-10507
yler	-10508
zing	-10509
ской	-10510
–178	-10511
▁(50	-10512
▁1-8	-10513
▁127	-10514
▁153	-10515
▁163	-10516
▁168	-10517
▁600	-10518
▁AFL	-10519
▁Arn	-10520
▁Aul	-10521
▁Bol	-10522
▁Bus	-10523
▁Cod	-10524
▁Cre	-10525
▁Cyn	-10526
▁Dag	-10527
▁Dob	-10528
▁Dog	-10529
▁Dol	-10530
▁Dur	-10531
▁Edm	-10532
▁Edu	-10533
▁Eub	-10534
▁Fly	-10535
▁Fol	-10536
▁Gos	-10537
▁Gul	-10538
▁Gut	-10539
▁Hab	-10540
▁Haj	-10541
▁Hob	-10542
▁Hod	-10543
▁Hyp	-10544
▁Ing	-10545
▁Kag	-10546
▁Kat	-10547
▁Kaw	-10548
▁Kie	-10549
▁Kol	-10550
▁LGB	-10551
▁McD	-10552
▁Meg	-10553
▁Mit	-10554
▁Nah	-10555
▁Nas	-10556
▁Nay	-10557
▁Nep	-10558
▁Nit	-10559
▁Nob	-10560
▁Oct	-10561
▁Ohm	-10562
▁Ore	-10563
▁Pho	-10564
▁Pâm	-10565
▁SUN	-10566
▁Sit	-10567
▁Ski	-10568
▁VOC	-10569
▁Vel	-10570
▁Vip	-10571
▁Voc	-10572
▁Wag	-10573
▁Wol	-10574
▁Zhe	-10575
▁ash	-10576
▁aux	-10577
▁cha	-10578
▁cig	-10579
▁dug	-10580
▁egg	-10581
▁eye	-10582
▁fer	-10583
▁fir	-10584
▁flo	-10585
▁fur	-10586
▁hat	-10587
▁isn	-10588
▁joy	-10589
▁mad	-10590
▁net	-10591
▁ped	-10592
▁pir	-10593
▁sib	-10594
▁syn	-10595
▁tor	-10596
▁veh	-10597
5,000	-10598
Alice	-10599
Hakam	-10600
Queen	-10601
acker	-10602
acros	-10603
aefer	-10604
after	-10605
alion	-10606
amped	-10607
angel	-10608
apsed	-10609
ataka	-10610
atuba	-10611
berle	-10612
boats	-10613
break	-10614
browa	-10615
built	-10616
cliff	-10617
cling	-10618
count	-10619
coupl	-10620
digit	-10621
enses	-10622
ermod	-10623
grand	-10624
iable	-10625
iards	-10626
idemi	-10627
idgin	-10628
ients	-10629
iliar	-10630
ilogy	-10631
inent	-10632
ipuro	-10633
irche	-10634
itars	-10635
lings	-10636
okhar	-10637
oller	-10638
orrow	-10639
pedia	-10640
racts	-10641
recht	-10642
rezly	-10643
ribed	-10644
ricts	-10645
rises	-10646
stark	-10647
state	-10648
stone	-10649
tures	-10650
umoto	-10651
undes	-10652
unter	-10653
using	-10654
utral	-10655
utton	-10656
▁(180	-10657
▁1824	-10658
▁1832	-10659
▁1837	-10660
▁1885	-10661
▁1901	-10662
▁1948	-10663
▁1949	-10664
▁1951	-10665
▁1956	-10666
▁1967	-10667
▁1976	-10668
▁Aces	-10669
▁Agre	-10670
▁Aird	-10671
▁Alab	-10672
▁Alph	-10673
▁Badj	-10674
▁Bart	-10675
▁Bene	-10676
▁Berg	-10677
▁Bern	-10678
▁Bert	-10679
▁Boyd	-10680
▁Capp	-10681
▁Chal	-10682
▁Chet	-10683
▁Chin	-10684
▁Cook	-10685
▁Corp	-10686
▁Cust	-10687
▁Datu	-10688
▁Diet	-10689
▁Diss	-10690
▁Fars	-10691
▁Food	-10692
▁Fool	-10693
▁Full	-10694
▁Gurs	-10695
▁Half	-10696
▁Hero	-10697
▁Hoff	-10698
▁Hold	-10699
▁Holt	-10700
▁Illy	-10701
▁Ilse	-10702
▁Init	-10703
▁Iron	-10704
▁Josh	-10705
▁Kamp	-10706
▁Kath	-10707
▁Kurt	-10708
▁Lore	-10709
▁Magn	-10710
▁Masc	-10711
▁Mill	-10712
▁Moro	-10713
▁Mult	-10714
▁Must	-10715
▁Myth	-10716
▁Next	-10717
▁Nile	-10718
▁Nott	-10719
▁Nuer	-10720
▁Once	-10721
▁Pall	-10722
▁Pont	-10723
▁Prof	-10724
▁Rafa	-10725
▁Real	-10726
▁Shin	-10727
▁Site	-10728
▁Soap	-10729
▁Soul	-10730
▁Tech	-10731
▁Teju	-10732
▁Tell	-10733
▁Text	-10734
▁Thus	-10735
▁Toul	-10736
▁Vann	-10737
▁Vern	-10738
▁WNKC	-10739
▁WWHL	-10740
▁Word	-10741
▁Zone	-10742
▁acts	-10743
▁argu	-10744
▁bayi	-10745
▁begg	-10746
▁belt	-10747
▁bids	-10748
▁chip	-10749
▁core	-10750
▁cruc	-10751
▁cusp	-10752
▁cuts	-10753
▁exit	-10754
▁fict	-10755
▁fish	-10756
▁foot	-10757
▁forg	-10758
▁fuel	-10759
▁fulf	-10760
▁garn	-10761
▁gest	-10762
▁hate	-10763
▁hear	-10764
▁hors	-10765
▁hour	-10766
▁imag	-10767
▁insc	-10768
▁isol	-10769
▁kick	-10770
▁kids	-10771
▁liqu	-10772
▁mach	-10773
▁magn	-10774
▁mini	-10775
▁norm	-10776
▁onto	-10777
▁orth	-10778
▁ring	-10779
▁riot	-10780
▁rise	-10781
▁roll	-10782
▁roof	-10783
▁rose	-10784
▁rush	-10785
▁shif	-10786
▁soci	-10787
▁soul	-10788
▁sure	-10789
▁swim	-10790
▁tack	-10791
▁tale	-10792
▁tand	-10793
▁trom	-10794
▁vice	-10795
▁wake	-10796
▁wish	-10797
▁Зако	-10798
Abidin	-10799
Calais	-10800
Finals	-10801
France	-10802
abited	-10803
alling	-10804
banded	-10805
called	-10806
comple	-10807
ducted	-10808
ensing	-10809
family	-10810
havior	-10811
hentic	-10812
hosted	-10813
inette	-10814
inking	-10815
irelli	-10816
ischer	-10817
issorh	-10818
oliday	-10819
ología	-10820
olving	-10821
ooting	-10822
orious	-10823
orters	-10824
otheca	-10825
ragath	-10826
ribute	-10827
ricane	-10828
rinted	-10829
risons	-10830
ruggle	-10831
runner	-10832
season	-10833
thouse	-10834
tuğrul	-10835
urally	-10836
vinced	-10837
wright	-10838
ánchez	-10839
▁(2022	-10840
▁1752)	-10841
▁1899)	-10842
▁1901,	-10843
▁1915,	-10844
▁1918,	-10845
▁1920)	-10846
▁1927,	-10847
▁1940,	-10848
▁1941,	-10849
▁1960.	-10850
▁1962,	-10851
▁1970,	-10852
▁1972)	-10853
▁1977,	-10854
▁1980,	-10855
▁1983.	-10856
▁1984.	-10857
▁1988.	-10858
▁1989)	-10859
▁1989.	-10860
▁1996)	-10861
▁1996.	-10862
▁1999)	-10863
▁2001.	-10864
▁Aaron	-10865
▁Argos	-10866
▁Aside	-10867
▁Atlas	-10868
▁Banis	-10869
▁Based	-10870
▁Basra	-10871
▁Belle	-10872
▁COSCO	-10873
▁Cantu	-10874
▁Cavan	-10875
▁Charl	-10876
▁Clear	-10877
▁Covel	-10878
▁Crime	-10879
▁Dolph	-10880
▁Draft	-10881
▁Dubón	-10882
▁Duval	-10883
▁Ernst	-10884
▁Essex	-10885
▁Faroe	-10886
▁Fifth	-10887
▁Geoff	-10888
▁Glass	-10889
▁Gooch	-10890
▁Hindu	-10891
▁Horde	-10892
▁ICANN	-10893
▁ICSOM	-10894
▁Knapp	-10895
▁Kulle	-10896
▁Landt	-10897
▁Leith	-10898
▁Liver	-10899
▁Lower	-10900
▁Malby	-10901
▁Match	-10902
▁Moore	-10903
▁Motor	-10904
▁Ngāti	-10905
▁Padua	-10906
▁Paper	-10907
▁Pavel	-10908
▁Perth	-10909
▁Plays	-10910
▁Plaza	-10911
▁Ramen	-10912
▁Rehat	-10913
▁Rocky	-10914
▁Roose	-10915
▁Satur	-10916
▁Shane	-10917
▁Shows	-10918
▁Space	-10919
▁Sport	-10920
▁Study	-10921
▁Tampa	-10922
▁Third	-10923
▁Tiger	-10924
▁Touch	-10925
▁Tully	-10926
▁Ubian	-10927
▁Urban	-10928
▁Venez	-10929
▁Villa	-10930
▁Wings	-10931
▁Works	-10932
▁Ziman	-10933
▁adopt	-10934
▁adult	-10935
▁adver	-10936
▁aimed	-10937
▁apply	-10938
▁basic	-10939
▁bless	-10940
▁bluff	-10941
▁capit	-10942
▁chron	-10943
▁comic	-10944
▁compl	-10945
▁dates	-10946
▁deleg	-10947
▁diver	-10948
▁drunk	-10949
▁dying	-10950
▁equal	-10951
▁exerc	-10952
▁fruit	-10953
▁genre	-10954
▁happy	-10955
▁heads	-10956
▁illeg	-10957
▁index	-10958
▁judge	-10959
▁lingu	-10960
▁lists	-10961
▁lobes	-10962
▁looks	-10963
▁lyric	-10964
▁mixed	-10965
▁navig	-10966
▁nickn	-10967
▁occas	-10968
▁pitch	-10969
▁polic	-10970
▁pumps	-10971
▁rapid	-10972
▁reloc	-10973
▁saint	-10974
▁saved	-10975
▁saves	-10976
▁seats	-10977
▁signs	-10978
▁simul	-10979
▁sixty	-10980
▁sleep	-10981
▁solid	-10982
▁spect	-10983
▁squad	-10984
▁stone	-10985
▁surge	-10986
▁tasks	-10987
▁threw	-10988
▁truly	-10989
▁turns	-10990
▁types	-10991
▁uncle	-10992
▁voted	-10993
▁watch	-10994
▁worst	-10995
English	-10996
acrosse	-10997
ainable	-10998
aldivia	-10999
aration	-11000
artaigh	-11001
chequer	-11002
cussion	-11003
edatuan	-11004
elihood	-11005
ianella	-11006
ighters	-11007
iscount	-11008
issance	-11009
ivalent	-11010
ivation	-11011
journal	-11012
lington	-11013
ominant	-11014
ouncill	-11015
ricarde	-11016
ropical	-11017
umption	-11018
▁(1999)	-11019
▁(2001)	-11020
▁(2003)	-11021
▁1998),	-11022
▁Action	-11023
▁Alaska	-11024
▁Archae	-11025
▁Bitter	-11026
▁Brasil	-11027
▁Bronze	-11028
▁Butter	-11029
▁Declar	-11030
▁Double	-11031
▁Dragon	-11032
▁Eagles	-11033
▁Essays	-11034
▁Farmer	-11035
▁Forbes	-11036
▁Gordon	-11037
▁Goshen	-11038
▁Granth	-11039
▁Guaica	-11040
▁Guitar	-11041
▁Hellen	-11042
▁Herald	-11043
▁Holmes	-11044
▁Howard	-11045
▁Inside	-11046
▁Johnny	-11047
▁Legion	-11048
▁Leslie	-11049
▁Madrid	-11050
▁McGill	-11051
▁Mobile	-11052
▁Nagoya	-11053
▁Native	-11054
▁Northe	-11055
▁Patrik	-11056
▁Primus	-11057
▁Pâmela	-11058
▁Queens	-11059
▁Richie	-11060
▁Rogers	-11061
▁Santos	-11062
▁Shomer	-11063
▁Stones	-11064
▁Sunday	-11065
▁Tanana	-11066
▁Tehsil	-11067
▁Theory	-11068
▁Travel	-11069
▁Viktor	-11070
▁Vipers	-11071
▁Witham	-11072
▁Yorkey	-11073
▁aboard	-11074
▁absorb	-11075
▁actors	-11076
▁adults	-11077
▁allows	-11078
▁amount	-11079
▁apprec	-11080
▁arithm	-11081
▁asylum	-11082
▁athlet	-11083
▁barony	-11084
▁bright	-11085
▁broken	-11086
▁chance	-11087
▁closer	-11088
▁colony	-11089
▁covers	-11090
▁custom	-11091
▁decree	-11092
▁enslav	-11093
▁escape	-11094
▁evapor	-11095
▁extrem	-11096
▁firmly	-11097
▁hunter	-11098
▁lowest	-11099
▁merged	-11100
▁mining	-11101
▁naming	-11102
▁nobles	-11103
▁noting	-11104
▁obtain	-11105
▁orphan	-11106
▁output	-11107
▁overse	-11108
▁papers	-11109
▁powers	-11110
▁praise	-11111
▁prince	-11112
▁profit	-11113
▁proven	-11114
▁racial	-11115
▁rarely	-11116
▁reduce	-11117
▁refers	-11118
▁regime	-11119
▁remark	-11120
▁resear	-11121
▁reserv	-11122
▁resign	-11123
▁select	-11124
▁severe	-11125
▁shrubs	-11126
▁simult	-11127
▁slight	-11128
▁stream	-11129
▁summon	-11130
▁tennis	-11131
▁terror	-11132
▁ticket	-11133
▁topics	-11134
▁toured	-11135
▁trials	-11136
▁tribut	-11137
▁turban	-11138
▁unanim	-11139
▁vacuum	-11140
▁viewed	-11141
▁vision	-11142
▁visits	-11143
▁worker	-11144
Andrezly	-11145
National	-11146
achelors	-11147
arehouse	-11148
formerly	-11149
ications	-11150
ologists	-11151
onnected	-11152
▁(1993),	-11153
▁(1995),	-11154
▁(1996),	-11155
▁(1998).	-11156
▁(1999),	-11157
▁(2005).	-11158
▁(2006),	-11159
▁(2008),	-11160
▁(2010),	-11161
▁Airdate	-11162
▁Armando	-11163
▁Beatles	-11164
▁Borough	-11165
▁Caganis	-11166
▁Camille	-11167
▁Caravan	-11168
▁Carbide	-11169
▁Carbury	-11170
▁Carroll	-11171
▁Chamber	-11172
▁Corbett	-11173
▁DePaolo	-11174
▁Diamond	-11175
▁Diriliş	-11176
▁Dąbrowa	-11177
▁Emanuel	-11178
▁Energie	-11179
▁Franzén	-11180
▁Freedom	-11181
▁Greater	-11182
▁Hamburg	-11183
▁Heavily	-11184
▁Hoffman	-11185
▁Holiday	-11186
▁Horatio	-11187
▁Illegal	-11188
▁Iranian	-11189
▁Janeiro	-11190
▁Khokhar	-11191
▁Köberle	-11192
▁Leopold	-11193
▁Maclean	-11194
▁Martins	-11195
▁Metcalf	-11196
▁Mohamed	-11197
▁Muirche	-11198
▁Orchard	-11199
▁Origins	-11200
▁Overall	-11201
▁Peoples	-11202
▁Persian	-11203
▁Problem	-11204
▁Publius	-11205
▁Rainbow	-11206
▁Rangers	-11207
▁Rolando	-11208
▁Rolling	-11209
▁Sacrati	-11210
▁Sheriff	-11211
▁Somalia	-11212
▁Tellach	-11213
▁Wilhelm	-11214
▁Winslow	-11215
▁Winston	-11216
▁Working	-11217
▁Writing	-11218
▁Zoroast	-11219
▁accompl	-11220
▁advisor	-11221
▁airline	-11222
▁alcohol	-11223
▁anthrop	-11224
▁arrives	-11225
▁athlete	-11226
▁authors	-11227
▁battery	-11228
▁bicycle	-11229
▁briefly	-11230
▁broader	-11231
▁cameras	-11232
▁cancell	-11233
▁captive	-11234
▁catcher	-11235
▁centers	-11236
▁channel	-11237
▁charges	-11238
▁conclus	-11239
▁condemn	-11240
▁confess	-11241
▁confirm	-11242
▁confron	-11243
▁contact	-11244
▁crashed	-11245
▁custody	-11246
▁cutting	-11247
▁dancing	-11248
▁designs	-11249
▁devices	-11250
▁discrim	-11251
▁dragged	-11252
▁endemic	-11253
▁enhance	-11254
▁existed	-11255
▁extinct	-11256
▁farmers	-11257
▁fighter	-11258
▁gallery	-11259
▁guitars	-11260
▁hearing	-11261
▁heiress	-11262
▁holiday	-11263
▁honours	-11264
▁illness	-11265
▁journey	-11266
▁legally	-11267
▁liberal	-11268
▁markets	-11269
▁martial	-11270
▁militia	-11271
▁mooring	-11272
▁museums	-11273
▁neutral	-11274
▁obayifo	-11275
▁ongoing	-11276
▁parking	-11277
▁passing	-11278
▁portfol	-11279
▁premier	-11280
▁produce	-11281
▁prolong	-11282
▁pronunc	-11283
▁protest	-11284
▁ranking	-11285
▁reaches	-11286
▁rebuilt	-11287
▁recited	-11288
▁replica	-11289
▁rescued	-11290
▁returns	-11291
▁revised	-11292
▁rivalry	-11293
▁sensory	-11294
▁spelled	-11295
▁stadium	-11296
▁steeple	-11297
▁volumes	-11298
▁worship	-11299
▁области	-11300
animation	-11301
odendrons	-11302
sequently	-11303
▁Archives	-11304
▁Bachelor	-11305
▁Blankley	-11306
▁Claypool	-11307
▁Clermont	-11308
▁Economic	-11309
▁Election	-11310
▁Ertuğrul	-11311
▁Friedick	-11312
▁Handbook	-11313
▁Historia	-11314
▁Instinct	-11315
▁Jennifer	-11316
▁Johnston	-11317
▁Krishnan	-11318
▁Monaeses	-11319
▁Newstalk	-11320
▁Overview	-11321
▁Physical	-11322
▁Politics	-11323
▁Portland	-11324
▁Problems	-11325
▁Protocol	-11326
▁Railroad	-11327
▁Recorded	-11328
▁Rondotia	-11329
▁Santiago	-11330
▁Scissorh	-11331
▁Together	-11332
▁Tomorrow	-11333
▁Valdivia	-11334
▁Vanniyar	-11335
▁Venezuel	-11336
▁Wardrope	-11337
▁Woodward	-11338
▁Zhejiang	-11339
▁accommod	-11340
▁achieved	-11341
▁advocacy	-11342
▁airlines	-11343
▁ancestry	-11344
▁artistic	-11345
▁believes	-11346
▁benefits	-11347
▁category	-11348
▁clinical	-11349
▁collapse	-11350
▁comedian	-11351
▁concrete	-11352
▁councils	-11353
▁coverage	-11354
▁covering	-11355
▁demanded	-11356
▁departed	-11357
▁diseases	-11358
▁enlarged	-11359
▁enrolled	-11360
▁entitled	-11361
▁everyone	-11362
▁examples	-11363
▁explicit	-11364
▁external	-11365
▁faithful	-11366
▁graduate	-11367
▁grandson	-11368
▁improved	-11369
▁informed	-11370
▁institut	-11371
▁instruct	-11372
▁judicial	-11373
▁lecturer	-11374
▁listings	-11375
▁marathon	-11376
▁meetings	-11377
▁observed	-11378
▁operator	-11379
▁orthodox	-11380
▁playoffs	-11381
▁premiere	-11382
▁priority	-11383
▁proposal	-11384
▁purchase	-11385
▁purposes	-11386
▁repeated	-11387
▁sketches	-11388
▁speakers	-11389
▁straight	-11390
▁suggests	-11391
▁survived	-11392
idemiology	-11393
songwriter	-11394
▁Aftermath	-11395
▁Agreement	-11396
▁Apostolic	-11397
▁Athenians	-11398
▁Cathedral	-11399
▁Corporate	-11400
▁Coveleski	-11401
▁Fernández	-11402
▁Hardstark	-11403
▁Initially	-11404
▁Karnataka	-11405
▁Landscape	-11406
▁Lithuania	-11407
▁Liverpool	-11408
▁Louisiana	-11409
▁Matsumoto	-11410
▁Melbourne	-11411
▁Mennonite	-11412
▁Musicians	-11413
▁Olympedia	-11414
▁Roosevelt	-11415
▁Twentieth	-11416
▁Ukrainian	-11417
▁Worcester	-11418
▁accompany	-11419
▁allegedly	-11420
▁authentic	-11421
▁bilingual	-11422
▁collapsed	-11423
▁competing	-11424
▁comprises	-11425
▁conflicts	-11426
▁connected	-11427
▁conquered	-11428
▁considers	-11429
▁contested	-11430
▁continues	-11431
▁convicted	-11432
▁convinced	-11433
▁detention	-11434
▁dismissed	-11435
▁displayed	-11436
▁districts	-11437
▁doctorate	-11438
▁eponymous	-11439
▁feedwater	-11440
▁festivals	-11441
▁fictional	-11442
▁garrisons	-11443
▁household	-11444
▁listening	-11445
▁mechanism	-11446
▁necessary	-11447
▁otherwise	-11448
▁paintings	-11449
▁partially	-11450
▁permitted	-11451
▁promoting	-11452
▁recipient	-11453
▁recurring	-11454
▁releasing	-11455
▁reporting	-11456
▁reprinted	-11457
▁requiring	-11458
▁secondary	-11459
▁statement	-11460
▁struggles	-11461
▁subgroups	-11462
▁submitted	-11463
▁variation	-11464
▁Тюменской	-11465
▁Convention	-11466
▁Courthouse	-11467
▁Geological	-11468
▁Gormanston	-11469
▁Masterplan	-11470
▁Ministries	-11471
▁Nottingham	-11472
▁Portsmouth	-11473
▁Principles	-11474
▁Providence	-11475
▁Provincial	-11476
▁accordance	-11477
▁agreements	-11478
▁apparently	-11479
▁approached	-11480
▁arithmetic	-11481
▁boundaries	-11482
▁ceremonies	-11483
▁colleagues	-11484
▁complement	-11485
▁completion	-11486
▁consistent	-11487
▁documented	-11488
▁encouraged	-11489
▁experiment	-11490
▁facilitate	-11491
▁generation	-11492
▁houseboats	-11493
▁midfielder	-11494
▁percussion	-11495
▁proclaimed	-11496
▁programmes	-11497
▁reflecting	-11498
▁reportedly	-11499
▁screenplay	-11500
▁simplified	-11501
▁structures	-11502
▁theologian	-11503
▁Clanricarde	-11504
▁Declaration	-11505
▁Engineering	-11506
▁Gentianella	-11507
▁Guaicaipuro	-11508
▁Mississippi	-11509
▁Northampton	-11510
▁celebrating	-11511
▁challenging	-11512
▁competitive	-11513
▁competitors	-11514
▁containment	-11515
▁departments	-11516
▁designation	-11517
▁differences	-11518
▁distributor	-11519
▁encountered	-11520
▁inaugurated	-11521
▁influential	-11522
▁initiatives	-11523
▁inspections	-11524
▁introducing	-11525
▁operational	-11526
▁perspective	-11527
▁predominant	-11528
▁prosecution	-11529
▁protagonist	-11530
▁residential	-11531
▁restoration	-11532
▁transformer	-11533
▁Publications	-11534
▁Scissorhands	-11535
▁Translations	-11536
▁consolidated	-11537
▁constitution	-11538
▁conventional	-11539
▁highlighting	-11540
▁participants	-11541
▁restrictions	-11542
▁screenwriter	-11543
▁spokesperson	-11544
▁technologies	-11545
▁Mediterranean	-11546
▁assassination	-11547
▁consciousness	-11548
▁establishment	-11549
▁opportunities	-11550
▁participation	-11551
▁philosophical	-11552
▁pronunciation	-11553
▁psychotherapy	-11554
▁qualification	-11555
▁relationships	-11556
▁rhododendrons	-11557
▁significantly	-11558
▁Constitutional	-11559
▁Muircheartaigh	-11560
▁characteristic	-11561
▁contradictions	-11562
▁responsibility	-11563
-7	-11564
.'	-11565
2/	-11566
49	-11567
62	-11568
65	-11569
72	-11570
73	-11571
8%	-11572
82	-11573
93	-11574
AM	-11575
Ad	-11576
Af	-11577
CE	-11578
DP	-11579
Di	-11580
ES	-11581
Hz	-11582
IP	-11583
IV	-11584
MA	-11585
Mc	-11586
On	-11587
PC	-11588
QU	-11589
RD	-11590
RE	-11591
SE	-11592
SR	-11593
TP	-11594
VA	-11595
aa	-11596
fg	-11597
hā	-11598
iç	-11599
rí	-11600
tw	-11601
át	-11602
ât	-11603
ça	-11604
íc	-11605
ün	-11606
ān	-11607
ел	-11608
ми	-11609
ря	-11610
ци	-11611
’’	-11612
⁄2	-11613
▁,	-11614
▁u	-11615
▁«	-11616
▁̇	-11617
-10	-11618
-13	-11619
-15	-11620
0-0	-11621
109	-11622
11-	-11623
120	-11624
13-	-11625
17)	-11626
4.9	-11627
45,	-11628
6):	-11629
700	-11630
:00	-11631
:32	-11632
All	-11633
Any	-11634
Art	-11635
BIS	-11636
Can	-11637
Cat	-11638
Col	-11639
Mac	-11640
Mad	-11641
May	-11642
PDF	-11643
Pac	-11644
Red	-11645
Reg	-11646
Sam	-11647
Sec	-11648
She	-11649
Ver	-11650
abl	-11651
ahr	-11652
aii	-11653
avi	-11654
aye	-11655
bit	-11656
cue	-11657
dot	-11658
eme	-11659
eps	-11660
ete	-11661
gro	-11662
hai	-11663
his	-11664
hsi	-11665
ilg	-11666
ité	-11667
jid	-11668
jor	-11669
kal	-11670
kil	-11671
lya	-11672
nam	-11673
nce	-11674
nia	-11675
nie	-11676
oca	-11677
oea	-11678
oed	-11679
oma	-11680
oom	-11681
opy	-11682
oua	-11683
oug	-11684
owa	-11685
quo	-11686
rex	-11687
rij	-11688
ses	-11689
tes	-11690
tle	-11691
two	-11692
uda	-11693
uen	-11694
ulu	-11695
utl	-11696
uto	-11697
uzu	-11698
var	-11699
vre	-11700
whe	-11701
ynn	-11702
âte	-11703
éât	-11704
ста	-11705
–11	-11706
–25	-11707
–26	-11708
–50	-11709
▁"[	-11710
▁$5	-11711
▁('	-11712
▁(4	-11713
▁(7	-11714
▁.2	-11715
▁34	-11716
▁51	-11717
▁59	-11718
▁66	-11719
▁6:	-11720
▁AI	-11721
▁Ao	-11722
▁Aw	-11723
▁Bj	-11724
▁CP	-11725
▁Cy	-11726
▁ES	-11727
▁Fr	-11728
▁Ho	-11729
▁IX	-11730
▁Io	-11731
▁Ir	-11732
▁Kr	-11733
▁Kw	-11734
▁MA	-11735
▁Mi	-11736
▁Op	-11737
▁RM	-11738
▁SK	-11739
▁ST	-11740
▁WW	-11741
▁Yu	-11742
▁sa	-11743
▁ur	-11744
▁vs	-11745
▁{{	-11746
▁от	-11747
▁次郎	-11748
/201	-11749
0-19	-11750
000-	-11751
255-	-11752
70).	-11753
Back	-11754
Cent	-11755
Ediç	-11756
Give	-11757
Gong	-11758
Ital	-11759
Kolk	-11760
Part	-11761
Pers	-11762
QUEN	-11763
This	-11764
Tube	-11765
abet	-11766
acas	-11767
acio	-11768
aine	-11769
akan	-11770
alog	-11771
alty	-11772
amib	-11773
anak	-11774
anie	-11775
anor	-11776
ansk	-11777
anta	-11778
anus	-11779
apes	-11780
arct	-11781
arkh	-11782
ashi	-11783
auch	-11784
aver	-11785
awan	-11786
bach	-11787
bery	-11788
care	-11789
cond	-11790
cott	-11791
cury	-11792
cyra	-11793
educ	-11794
elic	-11795
elle	-11796
ende	-11797
endy	-11798
enny	-11799
ento	-11800
eria	-11801
esqu	-11802
esta	-11803
fect	-11804
fers	-11805
flow	-11806
free	-11807
from	-11808
gary	-11809
greg	-11810
guez	-11811
hard	-11812
hell	-11813
hour	-11814
iami	-11815
iati	-11816
iful	-11817
igor	-11818
ilan	-11819
ilin	-11820
imal	-11821
iong	-11822
ipeg	-11823
issa	-11824
itia	-11825
ivan	-11826
iyos	-11827
know	-11828
ledd	-11829
lemn	-11830
link	-11831
mate	-11832
mitt	-11833
nitz	-11834
oids	-11835
oken	-11836
olla	-11837
only	-11838
onus	-11839
oria	-11840
otic	-11841
otte	-11842
otyp	-11843
ourg	-11844
page	-11845
ples	-11846
rawn	-11847
rine	-11848
rows	-11849
ruce	-11850
sson	-11851
stru	-11852
term	-11853
tına	-11854
uber	-11855
uchi	-11856
uchy	-11857
ucks	-11858
ukam	-11859
unul	-11860
urea	-11861
user	-11862
utom	-11863
will	-11864
wind	-11865
ydos	-11866
yers	-11867
ynam	-11868
ypse	-11869
ythm	-11870
}}_{	-11871
éric	-11872
ónio	-11873
ении	-11874
кова	-11875
–176	-11876
–180	-11877
▁(11	-11878
▁(12	-11879
▁(13	-11880
▁130	-11881
▁16.	-11882
▁220	-11883
▁250	-11884
▁355	-11885
▁Aem	-11886
▁Ard	-11887
▁Ark	-11888
▁Bak	-11889
▁Beg	-11890
▁Bey	-11891
▁Bio	-11892
▁Bos	-11893
▁Bum	-11894
▁Cai	-11895
▁Cel	-11896
▁Cer	-11897
▁Cin	-11898
▁Dak	-11899
▁Dio	-11900
▁Eli	-11901
▁Eye	-11902
▁FCC	-11903
▁Fem	-11904
▁Ful	-11905
▁Fır	-11906
▁Gan	-11907
▁Gob	-11908
▁Gog	-11909
▁Gom	-11910
▁Gov	-11911
▁Had	-11912
▁Hav	-11913
▁Hey	-11914
▁ISM	-11915
▁Ian	-11916
▁Ich	-11917
▁Ign	-11918
▁Ist	-11919
▁Ker	-11920
▁Kon	-11921
▁Kun	-11922
▁Liu	-11923
▁Liv	-11924
▁Lom	-11925
▁Mei	-11926
▁Mez	-11927
▁Nat	-11928
▁Opp	-11929
▁PMK	-11930
▁PhD	-11931
▁Pie	-11932
▁Pin	-11933
▁Ple	-11934
▁Por	-11935
▁Pow	-11936
▁Pul	-11937
▁Pur	-11938
▁Pyl	-11939
▁RCA	-11940
▁Rab	-11941
▁Rah	-11942
▁Ref	-11943
▁Run	-11944
▁Sat	-11945
▁Son	-11946
▁Sou	-11947
▁Spy	-11948
▁Syl	-11949
▁Tir	-11950
▁Tro	-11951
▁Vas	-11952
▁Vit	-11953
▁Viñ	-11954
▁Wat	-11955
▁Wer	-11956
▁Yar	-11957
▁[1]	-11958
▁alt	-11959
▁aqu	-11960
▁ber	-11961
▁bit	-11962
▁bob	-11963
▁cas	-11964
▁cir	-11965
▁cox	-11966
▁das	-11967
▁dil	-11968
▁dim	-11969
▁dre	-11970
▁eag	-11971
▁err	-11972
▁fat	-11973
▁fly	-11974
▁ham	-11975
▁hip	-11976
▁iwi	-11977
▁jur	-11978
▁lon	-11979
▁mos	-11980
▁nor	-11981
▁rat	-11982
▁rod	-11983
▁row	-11984
▁sad	-11985
▁sid	-11986
▁sun	-11987
▁thr	-11988
▁tip	-11989
▁vic	-11990
Great	-11991
Green	-11992
House	-11993
North	-11994
Pilot	-11995
Teams	-11996
abalu	-11997
abarī	-11998
acomo	-11999
acter	-12000
addle	-12001
adors	-12002
agger	-12003
agnie	-12004
agram	-12005
akawa	-12006
album	-12007
altes	-12008
angch	-12009
anion	-12010
anmar	-12011
antes	-12012
aping	-12013
arant	-12014
arded	-12015
armac	-12016
asgow	-12017
atene	-12018
avier	-12019
ayers	-12020
cepts	-12021
class	-12022
comes	-12023
cover	-12024
cross	-12025
drums	-12026
eches	-12027
encer	-12028
ensit	-12029
eping	-12030
erage	-12031
ergus	-12032
eston	-12033
ettes	-12034
ework	-12035
flict	-12036
grass	-12037
great	-12038
heart	-12039
icate	-12040
icent	-12041
icism	-12042
icken	-12043
idden	-12044
ierra	-12045
igusa	-12046
ingly	-12047
inyin	-12048
ische	-12049
itime	-12050
iture	-12051
keley	-12052
leigh	-12053
leton	-12054
liche	-12055
marsh	-12056
mates	-12057
neath	-12058
okles	-12059
okuta	-12060
oledo	-12061
orded	-12062
orney	-12063
othes	-12064
ounce	-12065
phone	-12066
ports	-12067
power	-12068
ptoms	-12069
rible	-12070
riers	-12071
riors	-12072
rongh	-12073
rored	-12074
sbury	-12075
shore	-12076
sites	-12077
stown	-12078
there	-12079
ubang	-12080
ucker	-12081
uffin	-12082
uming	-12083
uning	-12084
urate	-12085
ureen	-12086
usted	-12087
wheel	-12088
xiety	-12089
éâtre	-12090
ально	-12091
ского	-12092
▁(4):	-12093
▁100-	-12094
▁1641	-12095
▁1800	-12096
▁1839	-12097
▁1887	-12098
▁1888	-12099
▁1891	-12100
▁1905	-12101
▁1910	-12102
▁1911	-12103
▁1914	-12104
▁1922	-12105
▁1923	-12106
▁1924	-12107
▁1934	-12108
▁1939	-12109
▁1945	-12110
▁1946	-12111
▁1953	-12112
▁1974	-12113
▁Acha	-12114
▁Acqu	-12115
▁Amin	-12116
▁Amla	-12117
▁Anja	-12118
▁Apes	-12119
▁Barg	-12120
▁Bear	-12121
▁Boss	-12122
▁Buch	-12123
▁Case	-12124
▁Cert	-12125
▁Cock	-12126
▁Cond	-12127
▁Coun	-12128
▁Cris	-12129
▁Crow	-12130
▁Date	-12131
▁Dawn	-12132
▁Duff	-12133
▁Espa	-12134
▁Etto	-12135
▁Fest	-12136
▁Fion	-12137
▁Free	-12138
▁Gind	-12139
▁Gong	-12140
▁Goto	-12141
▁Hack	-12142
▁Hajj	-12143
▁Hanc	-12144
▁Hawk	-12145
▁Helm	-12146
▁Hels	-12147
▁Hern	-12148
▁Hers	-12149
▁Hiro	-12150
▁Hour	-12151
▁IFRS	-12152
▁Ikle	-12153
▁Kann	-12154
▁Kins	-12155
▁Kwan	-12156
▁Lane	-12157
▁Lead	-12158
▁Left	-12159
▁Lima	-12160
▁Loch	-12161
▁Loon	-12162
▁Maas	-12163
▁Make	-12164
▁Mayo	-12165
▁Mean	-12166
▁Milk	-12167
▁Ming	-12168
▁Moon	-12169
▁Much	-12170
▁Mull	-12171
▁Muth	-12172
▁Nadu	-12173
▁Nazi	-12174
▁Need	-12175
▁Nick	-12176
▁Noah	-12177
▁Norm	-12178
▁Pick	-12179
▁Pole	-12180
▁Polo	-12181
▁Pose	-12182
▁Prep	-12183
▁Prin	-12184
▁Pros	-12185
▁Qual	-12186
▁Rank	-12187
▁Reno	-12188
▁Rout	-12189
▁Ryan	-12190
▁SUNY	-12191
▁Said	-12192
▁Salv	-12193
▁Sele	-12194
▁Sens	-12195
▁Sett	-12196
▁Shir	-12197
▁Sign	-12198
▁Sind	-12199
▁Skog	-12200
▁Sold	-12201
▁Spot	-12202
▁Term	-12203
▁Test	-12204
▁Than	-12205
▁Trou	-12206
▁Troy	-12207
▁Twit	-12208
▁Tyro	-12209
▁Umay	-12210
▁Utah	-12211
▁View	-12212
▁Vivo	-12213
▁Wair	-12214
▁What	-12215
▁Whit	-12216
▁Winn	-12217
▁Wrex	-12218
▁Xfin	-12219
▁Zero	-12220
▁acid	-12221
▁ages	-12222
▁ally	-12223
▁anth	-12224
▁arou	-12225
▁atop	-12226
▁axis	-12227
▁bags	-12228
▁bark	-12229
▁bars	-12230
▁bird	-12231
▁boom	-12232
▁bulk	-12233
▁bull	-12234
▁cart	-12235
▁chap	-12236
▁cosm	-12237
▁dece	-12238
▁door	-12239
▁dorm	-12240
▁drum	-12241
▁edge	-12242
▁elev	-12243
▁epit	-12244
▁eval	-12245
▁fans	-12246
▁fill	-12247
▁flag	-12248
▁flee	-12249
▁foam	-12250
▁harm	-12251
▁hect	-12252
▁hope	-12253
▁iPod	-12254
▁icon	-12255
▁iron	-12256
▁judg	-12257
▁laut	-12258
▁masc	-12259
▁mill	-12260
▁narr	-12261
▁obov	-12262
▁ones	-12263
▁peas	-12264
▁poem	-12265
▁prec	-12266
▁pret	-12267
▁pull	-12268
▁rift	-12269
▁sand	-12270
▁shot	-12271
▁sunk	-12272
▁tied	-12273
▁torn	-12274
▁tort	-12275
▁wars	-12276
▁wire	-12277
▁yard	-12278
▁yoga	-12279
▁zero	-12280
85255-	-12281
Farmer	-12282
Hunter	-12283
Martin	-12284
Tracks	-12285
Verlag	-12286
achers	-12287
ailand	-12288
ailles	-12289
ainted	-12290
amford	-12291
aperos	-12292
arting	-12293
ashmir	-12294
ateral	-12295
bishop	-12296
bridge	-12297
celona	-12298
chestr	-12299
cliffe	-12300
coming	-12301
earing	-12302
ellite	-12303
ersion	-12304
finite	-12305
hedule	-12306
helieu	-12307
inding	-12308
ineers	-12309
ionary	-12310
issimo	-12311
istent	-12312
lights	-12313
linary	-12314
makers	-12315
onance	-12316
overty	-12317
people	-12318
phanie	-12319
prises	-12320
rapeut	-12321
reated	-12322
review	-12323
riages	-12324
ríguez	-12325
struck	-12326
suptic	-12327
ursery	-12328
versed	-12329
wegian	-12330
▁(2009	-12331
▁1,000	-12332
▁1892)	-12333
▁1900)	-12334
▁1910,	-12335
▁1917,	-12336
▁1917.	-12337
▁1919.	-12338
▁1920,	-12339
▁1930,	-12340
▁1930.	-12341
▁1938,	-12342
▁1945,	-12343
▁1958,	-12344
▁1960)	-12345
▁1963.	-12346
▁1967,	-12347
▁1970.	-12348
▁1974,	-12349
▁1976.	-12350
▁1978.	-12351
▁1980.	-12352
▁1983)	-12353
▁1984)	-12354
▁1985.	-12355
▁1992,	-12356
▁1997,	-12357
▁2,000	-12358
▁2002.	-12359
▁2005)	-12360
▁2008.	-12361
▁2009)	-12362
▁6,000	-12363
▁Achie	-12364
▁Adana	-12365
▁Alger	-12366
▁Anglo	-12367
▁Arche	-12368
▁Athel	-12369
▁Atrop	-12370
▁Beaut	-12371
▁Bluet	-12372
▁Bonev	-12373
▁Bongo	-12374
▁Bound	-12375
▁Brief	-12376
▁Carey	-12377
▁Caria	-12378
▁Carly	-12379
▁Chart	-12380
▁Chuck	-12381
▁Châte	-12382
▁Circa	-12383
▁Creat	-12384
▁Cruel	-12385
▁Cuban	-12386
▁Czech	-12387
▁Delhi	-12388
▁Dream	-12389
▁Duchy	-12390
▁Eagle	-12391
▁Ebers	-12392
▁Files	-12393
▁Fitzw	-12394
▁Flash	-12395
▁Ghost	-12396
▁Girls	-12397
▁Gladi	-12398
▁Glove	-12399
▁Gould	-12400
▁Hanna	-12401
▁Happy	-12402
▁Horne	-12403
▁Ident	-12404
▁Inner	-12405
▁Jimmy	-12406
▁Julie	-12407
▁Keert	-12408
▁Keith	-12409
▁Leigh	-12410
▁Lewin	-12411
▁Lewis	-12412
▁Lords	-12413
▁Lover	-12414
▁Mabel	-12415
▁Maine	-12416
▁McKim	-12417
▁Merit	-12418
▁Miami	-12419
▁Miche	-12420
▁Morph	-12421
▁Mundy	-12422
▁Myers	-12423
▁Namib	-12424
▁Nayim	-12425
▁Nepal	-12426
▁Niels	-12427
▁Nigel	-12428
▁Ocean	-12429
▁Paolo	-12430
▁Phase	-12431
▁Pilip	-12432
▁Poems	-12433
▁Privy	-12434
▁Puebl	-12435
▁Raidō	-12436
▁Raoul	-12437
▁Reach	-12438
▁Rehit	-12439
▁Rives	-12440
▁Saitō	-12441
▁Sarkh	-12442
▁Storm	-12443
▁Style	-12444
▁Titus	-12445
▁Tommy	-12446
▁Toshi	-12447
▁Tunis	-12448
▁Tyler	-12449
▁Until	-12450
▁Vesta	-12451
▁Veter	-12452
▁Wheel	-12453
▁alter	-12454
▁apart	-12455
▁axiom	-12456
▁banks	-12457
▁birds	-12458
▁bombs	-12459
▁bread	-12460
▁cells	-12461
▁color	-12462
▁couns	-12463
▁digit	-12464
▁doors	-12465
▁dozen	-12466
▁drove	-12467
▁drugs	-12468
▁elite	-12469
▁error	-12470
▁faces	-12471
▁facto	-12472
▁firms	-12473
▁folkl	-12474
▁forth	-12475
▁forty	-12476
▁grade	-12477
▁gradu	-12478
▁inher	-12479
▁knows	-12480
▁liked	-12481
▁loose	-12482
▁manus	-12483
▁marks	-12484
▁outer	-12485
▁piano	-12486
▁pleas	-12487
▁portr	-12488
▁presc	-12489
▁prone	-12490
▁queen	-12491
▁quiet	-12492
▁rates	-12493
▁reads	-12494
▁relie	-12495
▁renov	-12496
▁rever	-12497
▁rugby	-12498
▁scope	-12499
▁scrap	-12500
▁seize	-12501
▁shape	-12502
▁shell	-12503
▁shore	-12504
▁skill	-12505
▁spend	-12506
▁surve	-12507
▁sweet	-12508
▁tanks	-12509
▁teach	-12510
▁tenth	-12511
▁tools	-12512
▁tourn	-12513
▁tower	-12514
▁towns	-12515
▁trips	-12516
▁trium	-12517
▁twist	-12518
▁unexp	-12519
▁usual	-12520
▁valid	-12521
▁veget	-12522
▁wagon	-12523
▁warbl	-12524
▁wedge	-12525
▁wings	-12526
Chinese	-12527
Edições	-12528
Generes	-12529
Kolkata	-12530
Pacific	-12531
Persian	-12532
QUENTIN	-12533
Shimura	-12534
Thomson	-12535
arenhas	-12536
control	-12537
defence	-12538
defense	-12539
ecticut	-12540
henburg	-12541
herical	-12542
ication	-12543
idental	-12544
iewende	-12545
irement	-12546
itarian	-12547
jection	-12548
knowled	-12549
omotive	-12550
present	-12551
quality	-12552
redited	-12553
ringing	-12554
ullivan	-12555
unchada	-12556
–2023),	-12557
▁(1989)	-12558
▁(1994)	-12559
▁(1997)	-12560
▁(2006)	-12561
▁(2016)	-12562
▁(2018)	-12563
▁10/198	-12564
▁1969),	-12565
▁20,000	-12566
▁Abydos	-12567
▁Afghan	-12568
▁Aggies	-12569
▁Apocal	-12570
▁Arabic	-12571
▁Armada	-12572
▁Austro	-12573
▁Bement	-12574
▁Births	-12575
▁Bombay	-12576
▁Braves	-12577
▁Bryant	-12578
▁Camera	-12579
▁Candid	-12580
▁Census	-12581
▁Centro	-12582
▁Crisis	-12583
▁Dalton	-12584
▁Danger	-12585
▁Deaths	-12586
▁Debbie	-12587
▁Deport	-12588
▁Diplom	-12589
▁Ernest	-12590
▁Fisher	-12591
▁Floris	-12592
▁Goodan	-12593
▁Ground	-12594
▁Hammer	-12595
▁Having	-12596
▁Hawaii	-12597
▁Ingrid	-12598
▁Kamaya	-12599
▁Kirtan	-12600
▁Lesley	-12601
▁Lucius	-12602
▁Magdal	-12603
▁Makutu	-12604
▁Market	-12605
▁Maroto	-12606
▁Masson	-12607
▁Mirror	-12608
▁Misuzu	-12609
▁Monday	-12610
▁Morrin	-12611
▁Motion	-12612
▁Murtha	-12613
▁Nitnem	-12614
▁Palmer	-12615
▁Pelias	-12616
▁Pietro	-12617
▁Planet	-12618
▁Prince	-12619
▁Rachel	-12620
▁Ruthen	-12621
▁Salleh	-12622
▁Screen	-12623
▁Sheila	-12624
▁Sinama	-12625
▁Slovak	-12626
▁Stuart	-12627
▁Survey	-12628
▁Thrace	-12629
▁Titian	-12630
▁Toledo	-12631
▁Triple	-12632
▁Verlag	-12633
▁Vision	-12634
▁Wagner	-12635
▁Warner	-12636
▁Waters	-12637
▁Watten	-12638
▁apolog	-12639
▁arrays	-12640
▁assign	-12641
▁banner	-12642
▁behalf	-12643
▁boards	-12644
▁butter	-12645
▁caliph	-12646
▁cancel	-12647
▁carved	-12648
▁casual	-12649
▁consul	-12650
▁copper	-12651
▁curren	-12652
▁dancer	-12653
▁defend	-12654
▁detail	-12655
▁dollar	-12656
▁duties	-12657
▁eleven	-12658
▁embass	-12659
▁engage	-12660
▁ensued	-12661
▁escort	-12662
▁exists	-12663
▁explor	-12664
▁extens	-12665
▁facing	-12666
▁fisher	-12667
▁flange	-12668
▁flying	-12669
▁gather	-12670
▁global	-12671
▁handed	-12672
▁happen	-12673
▁honors	-12674
▁housed	-12675
▁inland	-12676
▁inters	-12677
▁learns	-12678
▁lichen	-12679
▁manner	-12680
▁marine	-12681
▁mercen	-12682
▁mixing	-12683
▁nephew	-12684
▁nobody	-12685
▁nomads	-12686
▁northe	-12687
▁orders	-12688
▁patent	-12689
▁perman	-12690
▁philan	-12691
▁proced	-12692
▁propag	-12693
▁purple	-12694
▁pushed	-12695
▁quoted	-12696
▁recapt	-12697
▁regain	-12698
▁reinst	-12699
▁resemb	-12700
▁resort	-12701
▁retail	-12702
▁riders	-12703
▁rivers	-12704
▁sailor	-12705
▁satisf	-12706
▁seemed	-12707
▁skiing	-12708
▁slaves	-12709
▁slider	-12710
▁stages	-12711
▁stands	-12712
▁stored	-12713
▁string	-12714
▁tandem	-12715
▁teased	-12716
▁temple	-12717
▁tongue	-12718
▁trains	-12719
▁trends	-12720
▁triple	-12721
▁united	-12722
▁useful	-12723
▁voters	-12724
▁walked	-12725
▁wished	-12726
Japanese	-12727
catchers	-12728
daughter	-12729
iography	-12730
iversary	-12731
missions	-12732
ragathus	-12733
thropist	-12734
▁(1988),	-12735
▁(2000),	-12736
▁(2001),	-12737
▁(2007),	-12738
▁(2008).	-12739
▁(2016).	-12740
▁(2018),	-12741
▁Affairs	-12742
▁Amazing	-12743
▁António	-12744
▁Banksia	-12745
▁Belgian	-12746
▁Bennett	-12747
▁Borders	-12748
▁Calgary	-12749
▁Cardoso	-12750
▁Cariati	-12751
▁Century	-12752
▁Chakhsi	-12753
▁Chalcis	-12754
▁Chigusa	-12755
▁Chilean	-12756
▁Cluster	-12757
▁Corcyra	-12758
▁Cottage	-12759
▁Doubles	-12760
▁Emperor	-12761
▁Eveline	-12762
▁Formula	-12763
▁Friends	-12764
▁Fırtına	-12765
▁Geology	-12766
▁Giacomo	-12767
▁Glasgow	-12768
▁Gogledd	-12769
▁Hancock	-12770
▁Healing	-12771
▁Holland	-12772
▁Inspect	-12773
▁Markazi	-12774
▁Marquis	-12775
▁Marshal	-12776
▁Maureen	-12777
▁Medical	-12778
▁Melanie	-12779
▁Mullins	-12780
▁Myanmar	-12781
▁Nichols	-12782
▁Opening	-12783
▁Passion	-12784
▁Release	-12785
▁Seattle	-12786
▁Serbian	-12787
▁Sewanee	-12788
▁Simunul	-12789
▁Solomon	-12790
▁Stevens	-12791
▁Trinity	-12792
▁Urutora	-12793
▁Utrecht	-12794
▁Vanessa	-12795
▁Vertigo	-12796
▁Weather	-12797
▁Website	-12798
▁Wrexham	-12799
▁Xfinity	-12800
▁YouTube	-12801
▁absence	-12802
▁adapted	-12803
▁amended	-12804
▁answers	-12805
▁anticip	-12806
▁anxiety	-12807
▁arguing	-12808
▁arousal	-12809
▁asserts	-12810
▁attaché	-12811
▁attract	-12812
▁beating	-12813
▁centres	-12814
▁chemist	-12815
▁cigaret	-12816
▁classic	-12817
▁consort	-12818
▁consuls	-12819
▁convers	-12820
▁crossed	-12821
▁decline	-12822
▁density	-12823
▁derived	-12824
▁disposs	-12825
▁divorce	-12826
▁donated	-12827
▁drafted	-12828
▁educate	-12829
▁emotion	-12830
▁enjoyed	-12831
▁escaped	-12832
▁fashion	-12833
▁gaining	-12834
▁galleys	-12835
▁heroism	-12836
▁imposed	-12837
▁massive	-12838
▁mayoral	-12839
▁nations	-12840
▁neither	-12841
▁obverse	-12842
▁package	-12843
▁painter	-12844
▁penalty	-12845
▁perhaps	-12846
▁posting	-12847
▁priorit	-12848
▁pursued	-12849
▁ravaged	-12850
▁removal	-12851
▁resolve	-12852
▁routine	-12853
▁servant	-12854
▁signing	-12855
▁sixteen	-12856
▁slavery	-12857
▁sorting	-12858
▁spoking	-12859
▁strongh	-12860
▁supreme	-12861
▁surgery	-12862
▁thermal	-12863
▁touring	-12864
▁tourist	-12865
▁tractor	-12866
▁traders	-12867
▁tribute	-12868
▁trilogy	-12869
▁truancy	-12870
▁typical	-12871
▁uniform	-12872
▁varying	-12873
▁veteran	-12874
▁violent	-12875
▁visible	-12876
▁volunte	-12877
▁wanting	-12878
▁wealthy	-12879
▁wearing	-12880
forcement	-12881
hematical	-12882
iological	-12883
▁978-0-19	-12884
▁Abeokuta	-12885
▁Academic	-12886
▁Airlines	-12887
▁Annaberg	-12888
▁Athletic	-12889
▁Augsburg	-12890
▁Austrian	-12891
▁Battista	-12892
▁Breuning	-12893
▁Capparis	-12894
▁Claudius	-12895
▁Colonial	-12896
▁Commerce	-12897
▁Conquest	-12898
▁Constant	-12899
▁Corporal	-12900
▁Deidamia	-12901
▁Democrat	-12902
▁Dewsbury	-12903
▁Dolphins	-12904
▁Download	-12905
▁Electric	-12906
▁Graduate	-12907
▁Heineman	-12908
▁Heinrich	-12909
▁Hersfeld	-12910
▁Infantry	-12911
▁Kinabalu	-12912
▁Language	-12913
▁Marshall	-12914
▁Minehead	-12915
▁Monument	-12916
▁Rhodians	-12917
▁Sarkhosh	-12918
▁Schedule	-12919
▁Seleucid	-12920
▁Shooting	-12921
▁Shopping	-12922
▁Speedway	-12923
▁Struggle	-12924
▁Superman	-12925
▁Thailand	-12926
▁Thatcher	-12927
▁Tidmarsh	-12928
▁Treasure	-12929
▁Veterans	-12930
▁Viscount	-12931
▁Warriors	-12932
▁Wildcats	-12933
▁Winnipeg	-12934
▁absorbed	-12935
▁absorber	-12936
▁actively	-12937
▁activity	-12938
▁admitted	-12939
▁affected	-12940
▁annually	-12941
▁blessing	-12942
▁captives	-12943
▁colonies	-12944
▁comments	-12945
▁confront	-12946
▁confused	-12947
▁consumer	-12948
▁crossing	-12949
▁detailed	-12950
▁determin	-12951
▁disabled	-12952
▁disaster	-12953
▁divorced	-12954
▁domestic	-12955
▁dramatic	-12956
▁dropping	-12957
▁editions	-12958
▁electron	-12959
▁encamped	-12960
▁engaging	-12961
▁enslaved	-12962
▁estimate	-12963
▁exercise	-12964
▁expelled	-12965
▁familiar	-12966
▁festival	-12967
▁focusing	-12968
▁fourteen	-12969
▁fragment	-12970
▁guardian	-12971
▁hectares	-12972
▁honorary	-12973
▁hospital	-12974
▁hypothes	-12975
▁immunity	-12976
▁inducted	-12977
▁infantry	-12978
▁inventor	-12979
▁licensed	-12980
▁literacy	-12981
▁machines	-12982
▁marching	-12983
▁memorial	-12984
▁mentions	-12985
▁messages	-12986
▁ministry	-12987
▁minority	-12988
▁mirrored	-12989
▁monument	-12990
▁negative	-12991
▁networks	-12992
▁normally	-12993
▁occupies	-12994
▁operates	-12995
▁ordinary	-12996
▁pitching	-12997
▁planning	-12998
▁policies	-12999
▁powerful	-13000
▁premises	-13001
▁prepared	-13002
▁provoked	-13003
▁psychiat	-13004
▁publique	-13005
▁purpurea	-13006
▁railroad	-13007
▁realized	-13008
▁registry	-13009
▁relation	-13010
▁retiring	-13011
▁rotation	-13012
▁scholars	-13013
▁sciences	-13014
▁sections	-13015
▁shootout	-13016
▁siblings	-13017
▁software	-13018
▁squadron	-13019
▁stabbing	-13020
▁standing	-13021
▁stroller	-13022
▁subgenus	-13023
▁supplied	-13024
▁supplies	-13025
▁supports	-13026
▁survives	-13027
▁tensions	-13028
▁thirteen	-13029
▁transmit	-13030
▁vocalist	-13031
▁websites	-13032
irtschafts	-13033
ologically	-13034
olutionary	-13035
originally	-13036
previously	-13037
production	-13038
▁Alternate	-13039
▁Assistant	-13040
▁Astronomy	-13041
▁Augustine	-13042
▁Barcelona	-13043
▁Battalion	-13044
▁Bulgarian	-13045
▁Coalition	-13046
▁Compagnie	-13047
▁Cupsuptic	-13048
▁Currently	-13049
▁Dartmouth	-13050
▁DeGeneres	-13051
▁Directory	-13052
▁Dominican	-13053
▁Exchequer	-13054
▁Friedrich	-13055
▁Greenwood	-13056
▁Histories	-13057
▁Meanwhile	-13058
▁Nightmare	-13059
▁Norwegian	-13060
▁Novissimo	-13061
▁Operation	-13062
▁Parthians	-13063
▁Philokles	-13064
▁Pilipinas	-13065
▁Quarterly	-13066
▁Recording	-13067
▁Richelieu	-13068
▁Rodríguez	-13069
▁Saraperos	-13070
▁Secondary	-13071
▁Soccerway	-13072
▁Southwest	-13073
▁absorbent	-13074
▁acknowled	-13075
▁amendment	-13076
▁animistic	-13077
▁assembled	-13078
▁attackers	-13079
▁automatic	-13080
▁believing	-13081
▁capturing	-13082
▁challenge	-13083
▁colleague	-13084
▁collected	-13085
▁commented	-13086
▁condemned	-13087
▁dangerous	-13088
▁defending	-13089
▁determine	-13090
▁directors	-13091
▁disorders	-13092
▁donations	-13093
▁efficient	-13094
▁exception	-13095
▁existence	-13096
▁extensive	-13097
▁extremely	-13098
▁fishermen	-13099
▁governors	-13100
▁guitarist	-13101
▁immediate	-13102
▁inaugural	-13103
▁inhabited	-13104
▁initiated	-13105
▁intellect	-13106
▁introduce	-13107
▁migration	-13108
▁ministers	-13109
▁mutineers	-13110
▁northwest	-13111
▁offensive	-13112
▁opponents	-13113
▁orthodoxy	-13114
▁ownership	-13115
▁practiced	-13116
▁practices	-13117
▁precedent	-13118
▁prevented	-13119
▁principle	-13120
▁processes	-13121
▁reference	-13122
▁responded	-13123
▁selection	-13124
▁sensation	-13125
▁seriously	-13126
▁sexuality	-13127
▁similarly	-13128
▁sixteenth	-13129
▁solutions	-13130
▁specimens	-13131
▁spiritual	-13132
▁sponsored	-13133
▁stationed	-13134
▁subjected	-13135
▁uncertain	-13136
▁victories	-13137
▁virtually	-13138
▁warehouse	-13139
▁withdrawn	-13140
▁wonderful	-13141
atisfaction	-13142
iodiversity	-13143
outheastern	-13144
▁Additional	-13145
▁Apocalypse	-13146
▁Archeology	-13147
▁Atropatene	-13148
▁Chancellor	-13149
▁Collection	-13150
▁Curriculum	-13151
▁Fellowship	-13152
▁Gladiators	-13153
▁Humanities	-13154
▁Hutchinson	-13155
▁Population	-13156
▁Presidency	-13157
▁Protection	-13158
▁Protestant	-13159
▁Rivesaltes	-13160
▁Statistics	-13161
▁Systematic	-13162
▁Versailles	-13163
▁Wonderland	-13164
▁assemblies	-13165
▁attributed	-13166
▁comparison	-13167
▁consultant	-13168
▁convention	-13169
▁corruption	-13170
▁culturally	-13171
▁delegation	-13172
▁discussing	-13173
▁electrical	-13174
▁elementary	-13175
▁employment	-13176
▁engagement	-13177
▁evaporator	-13178
▁fourteenth	-13179
▁historians	-13180
▁immigrants	-13181
▁influences	-13182
▁internment	-13183
▁originated	-13184
▁possession	-13185
▁provisions	-13186
▁publishing	-13187
▁questioned	-13188
▁regulation	-13189
▁resistance	-13190
▁statements	-13191
▁suspension	-13192
▁techniques	-13193
▁underneath	-13194
▁undertaken	-13195
▁unexpected	-13196
▁victorious	-13197
▁Connecticut	-13198
▁Fitzwilliam	-13199
▁Independent	-13200
▁Information	-13201
▁Mascarenhas	-13202
▁Observatory	-13203
▁Preliminary	-13204
▁Reanimation	-13205
▁Reservation	-13206
▁Zoroastrian	-13207
▁anniversary	-13208
▁connections	-13209
▁contentious	-13210
▁declaration	-13211
▁flexibility	-13212
▁fundamental	-13213
▁grandfather	-13214
▁illustrated	-13215
▁institution	-13216
▁mathematics	-13217
▁mercenaries	-13218
▁permanently	-13219
▁photographs	-13220
▁politicians	-13221
▁predecessor	-13222
▁questioning	-13223
▁recommended	-13224
▁regulations	-13225
▁substantial	-13226
▁temporarily	-13227
▁tournaments	-13228
▁transmitted	-13229
▁unanimously	-13230
▁978-0-85255-	-13231
▁Conservative	-13232
▁Energiewende	-13233
▁Independence	-13234
▁Introduction	-13235
▁Lincolnshire	-13236
▁Nevertheless	-13237
▁Organization	-13238
▁Preservation	-13239
▁assassinated	-13240
▁collaborated	-13241
▁commissioned	-13242
▁constituency	-13243
▁difficulties	-13244
▁dissertation	-13245
▁economically	-13246
▁historically	-13247
▁institutions	-13248
▁instrumental	-13249
▁organisation	-13250
▁preservation	-13251
▁psychologist	-13252
▁universities	-13253
▁unsuccessful	-13254
▁Storycatchers	-13255
▁collaboration	-13256
▁contributions	-13257
▁intentionally	-13258
▁interceptions	-13259
▁practitioners	-13260
▁psychological	-13261
▁anthropologist	-13262
▁archaeological	-13263
▁philanthropist	-13264
▁simultaneously	-13265
▁Gloucestershire	-13266
+2	-13267
--	-13268
.-	-13269
.4	-13270
/1	-13271
01	-13272
0°	-13273
1(	-13274
3%	-13275
38	-13276
51	-13277
66	-13278
AA	-13279
Be	-13280
CU	-13281
DO	-13282
El	-13283
Ge	-13284
He	-13285
KU	-13286
MF	-13287
MH	-13288
MI	-13289
MR	-13290
Me	-13291
My	-13292
NE	-13293
OD	-13294
OW	-13295
Oh	-13296
PI	-13297
PM	-13298
ds	-13299
eh	-13300
ei	-13301
fE	-13302
gk	-13303
iS	-13304
ić	-13305
km	-13306
ku	-13307
ls	-13308
lè	-13309
lé	-13310
pc	-13311
uj	-13312
wy	-13313
yb	-13314
zm	-13315
ás	-13316
ês	-13317
ís	-13318
ów	-13319
öm	-13320
ön	-13321
úl	-13322
ım	-13323
şk	-13324
ː,	-13325
Об	-13326
ер	-13327
ли	-13328
не	-13329
ор	-13330
ос	-13331
яб	-13332
ال	-13333
▁+	-13334
▁×	-13335
▁à	-13336
▁К	-13337
▁О	-13338
▁п	-13339
▁у	-13340
マン	-13341
ンガ	-13342
-20	-13343
-61	-13344
-86	-13345
.20	-13346
004	-13347
012	-13348
1);	-13349
125	-13350
15)	-13351
16)	-13352
170	-13353
19,	-13354
19.	-13355
20)	-13356
215	-13357
263	-13358
3.3	-13359
3.4	-13360
31,	-13361
415	-13362
50.	-13363
53/	-13364
54-	-13365
993	-13366
://	-13367
ANU	-13368
Anc	-13369
Ang	-13370
Aug	-13371
Ber	-13372
DRA	-13373
Dav	-13374
Est	-13375
FID	-13376
Joh	-13377
Mal	-13378
NIC	-13379
Pol	-13380
SOP	-13381
Sem	-13382
Sud	-13383
Sum	-13384
TOR	-13385
UTH	-13386
VCA	-13387
VII	-13388
Vie	-13389
You	-13390
aan	-13391
aas	-13392
aea	-13393
aky	-13394
anb	-13395
apa	-13396
arc	-13397
arp	-13398
arr	-13399
arō	-13400
aub	-13401
box	-13402
bry	-13403
chi	-13404
cra	-13405
cus	-13406
dag	-13407
deb	-13408
dem	-13409
een	-13410
eff	-13411
esz	-13412
fel	-13413
fre	-13414
gas	-13415
gie	-13416
got	-13417
gov	-13418
gyu	-13419
hab	-13420
had	-13421
hea	-13422
het	-13423
hor	-13424
hou	-13425
how	-13426
hum	-13427
igu	-13428
ija	-13429
ije	-13430
ijn	-13431
ijō	-13432
irō	-13433
isd	-13434
iya	-13435
jah	-13436
jas	-13437
kla	-13438
kou	-13439
lah	-13440
lat	-13441
lia	-13442
lif	-13443
lik	-13444
lix	-13445
lıç	-13446
mat	-13447
may	-13448
mez	-13449
nee	-13450
nep	-13451
nod	-13452
nzo	-13453
oba	-13454
odg	-13455
ogh	-13456
oki	-13457
oku	-13458
oli	-13459
opo	-13460
pad	-13461
rae	-13462
rak	-13463
rio	-13464
sit	-13465
sts	-13466
teg	-13467
vez	-13468
vit	-13469
vol	-13470
wal	-13471
was	-13472
won	-13473
xin	-13474
xts	-13475
ymn	-13476
zed	-13477
zek	-13478
zel	-13479
örn	-13480
кая	-13481
–1.	-13482
▁#6	-13483
▁#8	-13484
▁$3	-13485
▁$4	-13486
▁$6	-13487
▁(8	-13488
▁(£	-13489
▁33	-13490
▁43	-13491
▁58	-13492
▁6-	-13493
▁68	-13494
▁69	-13495
▁7.	-13496
▁79	-13497
▁7:	-13498
▁83	-13499
▁84	-13500
▁86	-13501
▁9.	-13502
▁Aj	-13503
▁BA	-13504
▁Bü	-13505
▁Cá	-13506
▁Dw	-13507
▁Dü	-13508
▁Eg	-13509
▁Eó	-13510
▁Fw	-13511
▁Fé	-13512
▁GH	-13513
▁Ga	-13514
▁Hy	-13515
▁IC	-13516
▁IP	-13517
▁JP	-13518
▁Ki	-13519
▁LP	-13520
▁MG	-13521
▁MR	-13522
▁MW	-13523
▁NZ	-13524
▁PE	-13525
▁PS	-13526
▁Pé	-13527
▁RD	-13528
▁Ry	-13529
▁Si	-13530
▁TN	-13531
▁VH	-13532
▁Vé	-13533
▁Yo	-13534
▁dw	-13535
▁ir	-13536
▁je	-13537
▁ji	-13538
▁sq	-13539
▁но	-13540
▁ال	-13541
▁二郎	-13542
▁麒麟	-13543
/200	-13544
1-19	-13545
13),	-13546
14),	-13547
14).	-13548
1556	-13549
7486	-13550
7914	-13551
Arab	-13552
Cons	-13553
East	-13554
Find	-13555
Gold	-13556
John	-13557
King	-13558
Kore	-13559
Rich	-13560
Self	-13561
abad	-13562
acea	-13563
acen	-13564
acle	-13565
adet	-13566
adha	-13567
aeda	-13568
afon	-13569
ahar	-13570
aise	-13571
alis	-13572
alkı	-13573
amba	-13574
amer	-13575
anca	-13576
andi	-13577
anka	-13578
anne	-13579
anti	-13580
anto	-13581
anzz	-13582
apta	-13583
aque	-13584
ardi	-13585
arek	-13586
argo	-13587
atel	-13588
atip	-13589
aton	-13590
atri	-13591
auer	-13592
avar	-13593
ayas	-13594
ayat	-13595
azzo	-13596
beck	-13597
bedo	-13598
best	-13599
bius	-13600
boek	-13601
chon	-13602
cies	-13603
clam	-13604
club	-13605
core	-13606
cuts	-13607
edly	-13608
eign	-13609
elin	-13610
ermo	-13611
eros	-13612
esch	-13613
fest	-13614
folk	-13615
four	-13616
gien	-13617
girl	-13618
gloy	-13619
grin	-13620
hack	-13621
half	-13622
hift	-13623
hill	-13624
hout	-13625
iani	-13626
icas	-13627
idas	-13628
iden	-13629
idis	-13630
iens	-13631
ifus	-13632
igno	-13633
igur	-13634
ihad	-13635
ilai	-13636
ilas	-13637
ilda	-13638
ilou	-13639
imet	-13640
imit	-13641
inda	-13642
inks	-13643
inqu	-13644
inst	-13645
inyl	-13646
isel	-13647
izom	-13648
jari	-13649
kand	-13650
kets	-13651
khot	-13652
kids	-13653
kill	-13654
ldon	-13655
leen	-13656
lein	-13657
lett	-13658
lynn	-13659
mail	-13660
nard	-13661
ndon	-13662
okie	-13663
oldt	-13664
ombe	-13665
onen	-13666
onet	-13667
ongs	-13668
oush	-13669
ovka	-13670
owed	-13671
oyle	-13672
pent	-13673
pers	-13674
plit	-13675
post	-13676
qual	-13677
rach	-13678
rado	-13679
rant	-13680
rase	-13681
raud	-13682
rein	-13683
rele	-13684
rens	-13685
rett	-13686
rift	-13687
rint	-13688
ruro	-13689
sein	-13690
sens	-13691
seud	-13692
solo	-13693
sons	-13694
stal	-13695
such	-13696
that	-13697
ucis	-13698
udes	-13699
ules	-13700
ulip	-13701
ulus	-13702
unts	-13703
utho	-13704
utia	-13705
vian	-13706
wall	-13707
were	-13708
yles	-13709
zmán	-13710
çois	-13711
ébec	-13712
ская	-13713
ября	-13714
–182	-13715
–195	-13716
–196	-13717
▁$15	-13718
▁(80	-13719
▁104	-13720
▁120	-13721
▁122	-13722
▁125	-13723
▁143	-13724
▁144	-13725
▁15-	-13726
▁152	-13727
▁17.	-13728
▁171	-13729
▁172	-13730
▁20.	-13731
▁23.	-13732
▁24.	-13733
▁2–1	-13734
▁31.	-13735
▁317	-13736
▁335	-13737
▁40,	-13738
▁53,	-13739
▁60,	-13740
▁65,	-13741
▁6–2	-13742
▁6–4	-13743
▁800	-13744
▁91.	-13745
▁99.	-13746
▁Alg	-13747
▁Aqu	-13748
▁Arr	-13749
▁Ath	-13750
▁Aşk	-13751
▁Bot	-13752
▁Bou	-13753
▁Buk	-13754
▁CTA	-13755
▁Cly	-13756
▁Cov	-13757
▁Cue	-13758
▁DNA	-13759
▁Daw	-13760
▁Dea	-13761
▁Dre	-13762
▁Dry	-13763
▁Ear	-13764
▁Eck	-13765
▁Eka	-13766
▁Ekk	-13767
▁Els	-13768
▁Ens	-13769
▁Ent	-13770
▁Env	-13771
▁Fal	-13772
▁Fed	-13773
▁Fri	-13774
▁Fun	-13775
▁Gas	-13776
▁Gat	-13777
▁Gay	-13778
▁Gro	-13779
▁Gál	-13780
▁Hip	-13781
▁Hir	-13782
▁Hot	-13783
▁Hua	-13784
▁Hum	-13785
▁IDF	-13786
▁Imm	-13787
▁IoT	-13788
▁Iss	-13789
▁Izc	-13790
▁JFK	-13791
▁JLA	-13792
▁Jab	-13793
▁Jak	-13794
▁Jay	-13795
▁Jen	-13796
▁Jin	-13797
▁Jur	-13798
▁Kah	-13799
▁Kik	-13800
▁Kop	-13801
▁Kra	-13802
▁Kud	-13803
▁Kus	-13804
▁Köd	-13805
▁Lat	-13806
▁Laz	-13807
▁Len	-13808
▁Log	-13809
▁Loy	-13810
▁MFK	-13811
▁MVP	-13812
▁Maj	-13813
▁Mau	-13814
▁Meh	-13815
▁Net	-13816
▁Nom	-13817
▁Occ	-13818
▁Pot	-13819
▁Pun	-13820
▁Row	-13821
▁Saf	-13822
▁Sak	-13823
▁Say	-13824
▁Set	-13825
▁Sri	-13826
▁Syn	-13827
▁São	-13828
▁Taw	-13829
▁Tax	-13830
▁Tin	-13831
▁Ton	-13832
▁Tud	-13833
▁Twf	-13834
▁Uta	-13835
▁Var	-13836
▁Who	-13837
▁Yad	-13838
▁Yet	-13839
▁Yip	-13840
▁Zan	-13841
▁Zey	-13842
▁Zhu	-13843
▁Zon	-13844
▁aer	-13845
▁anx	-13846
▁bol	-13847
▁bot	-13848
▁buy	-13849
▁coe	-13850
▁cul	-13851
▁dog	-13852
▁fal	-13853
▁flu	-13854
▁hol	-13855
▁kin	-13856
▁lad	-13857
▁mor	-13858
▁mph	-13859
▁nut	-13860
▁obs	-13861
▁oil	-13862
▁orb	-13863
▁oxy	-13864
▁pic	-13865
▁por	-13866
▁pru	-13867
▁rue	-13868
▁sab	-13869
▁sed	-13870
▁soc	-13871
▁tar	-13872
▁tur	-13873
▁vor	-13874
▁zur	-13875
1007/	-13876
1353/	-13877
7,000	-13878
Chair	-13879
INCSO	-13880
Irish	-13881
Music	-13882
Māori	-13883
Party	-13884
Saint	-13885
Shine	-13886
Treme	-13887
about	-13888
ación	-13889
acles	-13890
adequ	-13891
again	-13892
agasc	-13893
agena	-13894
agers	-13895
aghan	-13896
aines	-13897
aints	-13898
aller	-13899
along	-13900
ambia	-13901
amble	-13902
andal	-13903
andra	-13904
andro	-13905
anese	-13906
anked	-13907
anoid	-13908
antly	-13909
archy	-13910
arcte	-13911
arten	-13912
asana	-13913
assan	-13914
astes	-13915
atche	-13916
ateur	-13917
athan	-13918
attus	-13919
avian	-13920
bergh	-13921
berra	-13922
books	-13923
brace	-13924
cella	-13925
cents	-13926
chain	-13927
clesi	-13928
crowd	-13929
curve	-13930
cutta	-13931
drive	-13932
eback	-13933
eding	-13934
eking	-13935
elect	-13936
eloua	-13937
emann	-13938
ennie	-13939
enova	-13940
entry	-13941
erted	-13942
estan	-13943
ester	-13944
eties	-13945
ewhat	-13946
ffick	-13947
front	-13948
geant	-13949
gence	-13950
given	-13951
grade	-13952
group	-13953
gwood	-13954
haust	-13955
hears	-13956
icing	-13957
ieran	-13958
ierce	-13959
ifera	-13960
igade	-13961
igeru	-13962
ilaut	-13963
iller	-13964
inage	-13965
inhon	-13966
inian	-13967
inisc	-13968
insky	-13969
inted	-13970
ipper	-13971
islau	-13972
isons	-13973
isson	-13974
istas	-13975
iston	-13976
itaph	-13977
itted	-13978
ivill	-13979
izuki	-13980
jamin	-13981
later	-13982
level	-13983
maker	-13984
night	-13985
ocket	-13986
ocock	-13987
odies	-13988
offer	-13989
ogore	-13990
olamo	-13991
olded	-13992
olics	-13993
olino	-13994
olute	-13995
omede	-13996
onant	-13997
ongan	-13998
ophon	-13999
orell	-14000
orted	-14001
orton	-14002
osite	-14003
ossom	-14004
otted	-14005
psons	-14006
purch	-14007
qiong	-14008
quake	-14009
raser	-14010
rians	-14011
ricks	-14012
ritic	-14013
speed	-14014
stadt	-14015
stage	-14016
stens	-14017
storm	-14018
ström	-14019
tereo	-14020
ugawa	-14021
uidhe	-14022
uline	-14023
umiar	-14024
umpet	-14025
union	-14026
until	-14027
ureau	-14028
usade	-14029
utomu	-14030
utory	-14031
vened	-14032
walde	-14033
yards	-14034
ylist	-14035
zzles	-14036
▁#1–5	-14037
▁(1):	-14038
▁(156	-14039
▁(157	-14040
▁(187	-14041
▁1419	-14042
▁1597	-14043
▁1770	-14044
▁1778	-14045
▁1806	-14046
▁1812	-14047
▁1815	-14048
▁1817	-14049
▁1830	-14050
▁1847	-14051
▁1850	-14052
▁1866	-14053
▁1878	-14054
▁1890	-14055
▁1894	-14056
▁1913	-14057
▁1915	-14058
▁1928	-14059
▁1938	-14060
▁1941	-14061
▁1943	-14062
▁1957	-14063
▁1958	-14064
▁1959	-14065
▁1965	-14066
▁1966	-14067
▁1975	-14068
▁1985	-14069
▁9014	-14070
▁Adri	-14071
▁Akal	-14072
▁Amyn	-14073
▁Anat	-14074
▁Andy	-14075
▁Atom	-14076
▁Aure	-14077
▁Avex	-14078
▁Baba	-14079
▁Babe	-14080
▁Bakh	-14081
▁Banu	-14082
▁Bean	-14083
▁Beau	-14084
▁Bhar	-14085
▁Blan	-14086
▁Boch	-14087
▁Bonn	-14088
▁Brid	-14089
▁Bros	-14090
▁Buff	-14091
▁Call	-14092
▁Cher	-14093
▁Cite	-14094
▁Coch	-14095
▁Coin	-14096
▁Conc	-14097
▁Cool	-14098
▁Crew	-14099
▁Crom	-14100
▁Dais	-14101
▁Dame	-14102
▁Deer	-14103
▁Dire	-14104
▁Doom	-14105
▁Dram	-14106
▁Dres	-14107
▁Drew	-14108
▁Drug	-14109
▁Drum	-14110
▁Dunn	-14111
▁ESPN	-14112
▁Fact	-14113
▁Falk	-14114
▁Fang	-14115
▁Finn	-14116
▁Foss	-14117
▁Gale	-14118
▁Gill	-14119
▁Gilw	-14120
▁Giul	-14121
▁Goan	-14122
▁Goês	-14123
▁Gull	-14124
▁Gust	-14125
▁Hamp	-14126
▁Help	-14127
▁Herm	-14128
▁Hots	-14129
▁Hous	-14130
▁Humb	-14131
▁Hung	-14132
▁Ilya	-14133
▁Isis	-14134
▁Ivan	-14135
▁Jain	-14136
▁Jamm	-14137
▁Jans	-14138
▁Jens	-14139
▁Jets	-14140
▁Jirō	-14141
▁Jord	-14142
▁Khor	-14143
▁Klim	-14144
▁Koga	-14145
▁Koun	-14146
▁Kras	-14147
▁LGBT	-14148
▁Lanc	-14149
▁Lars	-14150
▁Lawn	-14151
▁Lian	-14152
▁Lied	-14153
▁Lois	-14154
▁Loss	-14155
▁Lyon	-14156
▁Mall	-14157
▁Mork	-14158
▁Mush	-14159
▁NIMC	-14160
▁Nabi	-14161
▁Nach	-14162
▁Neck	-14163
▁Nils	-14164
▁Nish	-14165
▁Oleg	-14166
▁Oman	-14167
▁Oran	-14168
▁Oval	-14169
▁Owen	-14170
▁Pang	-14171
▁Paqu	-14172
▁Patt	-14173
▁Pehn	-14174
▁Pent	-14175
▁Plut	-14176
▁Pool	-14177
▁Prom	-14178
▁Qutl	-14179
▁RMRP	-14180
▁Rays	-14181
▁Rena	-14182
▁Rose	-14183
▁Ruby	-14184
▁SGPC	-14185
▁Sail	-14186
▁Size	-14187
▁Slob	-14188
▁Slow	-14189
▁Solo	-14190
▁Sons	-14191
▁Sony	-14192
▁Sylv	-14193
▁Take	-14194
▁Teut	-14195
▁Thim	-14196
▁Trax	-14197
▁Tree	-14198
▁Tris	-14199
▁Ugyu	-14200
▁Unit	-14201
▁VIII	-14202
▁Vere	-14203
▁Very	-14204
▁Vinc	-14205
▁Viol	-14206
▁Void	-14207
▁Vors	-14208
▁WSOP	-14209
▁WVCA	-14210
▁Wake	-14211
▁Wald	-14212
▁Yale	-14213
▁Yosh	-14214
▁Zion	-14215
▁adds	-14216
▁bare	-14217
▁bend	-14218
▁blow	-14219
▁cass	-14220
▁cell	-14221
▁cohe	-14222
▁dans	-14223
▁dock	-14224
▁easy	-14225
▁ethn	-14226
▁exem	-14227
▁fate	-14228
▁fees	-14229
▁foss	-14230
▁fung	-14231
▁gain	-14232
▁gard	-14233
▁hubs	-14234
▁impl	-14235
▁incl	-14236
▁inde	-14237
▁inqu	-14238
▁kibb	-14239
▁lace	-14240
▁laps	-14241
▁lieu	-14242
▁maid	-14243
▁mead	-14244
▁mort	-14245
▁neck	-14246
▁none	-14247
▁note	-14248
▁oaks	-14249
▁obsc	-14250
▁outr	-14251
▁pair	-14252
▁pard	-14253
▁pati	-14254
▁peak	-14255
▁pink	-14256
▁plus	-14257
▁pole	-14258
▁push	-14259
▁puts	-14260
▁quit	-14261
▁reed	-14262
▁remn	-14263
▁root	-14264
▁sang	-14265
▁seal	-14266
▁sell	-14267
▁shoo	-14268
▁slam	-14269
▁subs	-14270
▁sung	-14271
▁swit	-14272
▁tell	-14273
▁tend	-14274
▁tiny	-14275
▁trit	-14276
▁wait	-14277
▁warm	-14278
▁weap	-14279
▁wool	-14280
▁wors	-14281
▁zone	-14282
Arabic	-14283
Boston	-14284
League	-14285
Minors	-14286
Nestor	-14287
United	-14288
Waters	-14289
acelet	-14290
aceous	-14291
agmala	-14292
agraph	-14293
alamat	-14294
ampire	-14295
approp	-14296
arding	-14297
astrop	-14298
atever	-14299
brycht	-14300
ecutor	-14301
enburg	-14302
erious	-14303
erness	-14304
erving	-14305
esters	-14306
ethnic	-14307
etters	-14308
everly	-14309
flower	-14310
hnaill	-14311
icance	-14312
ickson	-14313
idates	-14314
iduous	-14315
ielded	-14316
ifacts	-14317
imates	-14318
imitri	-14319
inance	-14320
ionate	-14321
iously	-14322
ischen	-14323
itchen	-14324
iveira	-14325
killed	-14326
lander	-14327
league	-14328
listed	-14329
member	-14330
nasamy	-14331
nesday	-14332
ocaust	-14333
ochond	-14334
ocracy	-14335
olians	-14336
omatic	-14337
oraman	-14338
orrect	-14339
peffer	-14340
plasis	-14341
ptions	-14342
racing	-14343
raighe	-14344
raltar	-14345
rosion	-14346
sacids	-14347
second	-14348
secret	-14349
seille	-14350
strong	-14351
termin	-14352
terson	-14353
thinin	-14354
tracks	-14355
urance	-14356
urches	-14357
usalem	-14358
valent	-14359
wealth	-14360
▁(1916	-14361
▁(1926	-14362
▁(2023	-14363
▁1895.	-14364
▁1908.	-14365
▁1914)	-14366
▁1914,	-14367
▁1916,	-14368
▁1918)	-14369
▁1933.	-14370
▁1944.	-14371
▁1957,	-14372
▁1958.	-14373
▁1961)	-14374
▁1961,	-14375
▁1964,	-14376
▁1967.	-14377
▁1975,	-14378
▁1975.	-14379
▁1976,	-14380
▁1980)	-14381
▁1982,	-14382
▁1997.	-14383
▁4,000	-14384
▁97818	-14385
▁Adalg	-14386
▁Ahora	-14387
▁Aires	-14388
▁Allah	-14389
▁Alman	-14390
▁Apoll	-14391
▁Armed	-14392
▁Aster	-14393
▁Aston	-14394
▁Ayles	-14395
▁Bagby	-14396
▁Bally	-14397
▁Barge	-14398
▁Biman	-14399
▁Björn	-14400
▁Brand	-14401
▁Break	-14402
▁Brend	-14403
▁Brent	-14404
▁Brill	-14405
▁Buddy	-14406
▁Bugis	-14407
▁Bugyn	-14408
▁Chaen	-14409
▁Chang	-14410
▁Chaos	-14411
▁Cheng	-14412
▁Clare	-14413
▁Corey	-14414
▁Creek	-14415
▁Cynos	-14416
▁Dalkı	-14417
▁Dance	-14418
▁Darat	-14419
▁Darts	-14420
▁Dejid	-14421
▁Delta	-14422
▁Deuts	-14423
▁Dewan	-14424
▁Disco	-14425
▁Drama	-14426
▁Edigu	-14427
▁Edwin	-14428
▁Elder	-14429
▁Elmes	-14430
▁Emily	-14431
▁Exped	-14432
▁Falls	-14433
▁Fitch	-14434
▁Fland	-14435
▁Forst	-14436
▁Fries	-14437
▁Ghana	-14438
▁Glina	-14439
▁Golds	-14440
▁Grove	-14441
▁Gurdw	-14442
▁Hague	-14443
▁Hasan	-14444
▁Hearn	-14445
▁Hills	-14446
▁Instr	-14447
▁Isaac	-14448
▁Jasmi	-14449
▁Jason	-14450
▁Jewel	-14451
▁Jorge	-14452
▁Kapor	-14453
▁Kells	-14454
▁Kiekh	-14455
▁Klaus	-14456
▁Kline	-14457
▁Labor	-14458
▁Lenny	-14459
▁Leong	-14460
▁Level	-14461
▁Linda	-14462
▁Lives	-14463
▁Logan	-14464
▁Lomas	-14465
▁Lucia	-14466
▁Lunch	-14467
▁Manch	-14468
▁Mapun	-14469
▁Marek	-14470
▁Monte	-14471
▁Moroc	-14472
▁Nabis	-14473
▁Nahal	-14474
▁Names	-14475
▁Nanak	-14476
▁Neder	-14477
▁Noura	-14478
▁Okrug	-14479
▁Olaya	-14480
▁Parad	-14481
▁Peric	-14482
▁Phang	-14483
▁Pitch	-14484
▁Princ	-14485
▁Punic	-14486
▁Purch	-14487
▁Pylos	-14488
▁Quint	-14489
▁Ragam	-14490
▁Rawle	-14491
▁Rebec	-14492
▁Renew	-14493
▁Rider	-14494
▁Roche	-14495
▁Romeo	-14496
▁Roush	-14497
▁Rugby	-14498
▁Sagar	-14499
▁Sapta	-14500
▁Schol	-14501
▁Seeds	-14502
▁Senti	-14503
▁Seoul	-14504
▁Shore	-14505
▁Stage	-14506
▁Starz	-14507
▁Stick	-14508
▁Stift	-14509
▁Still	-14510
▁Swept	-14511
▁Tamil	-14512
▁Tatar	-14513
▁Theod	-14514
▁Thorn	-14515
▁Trade	-14516
▁Trinc	-14517
▁Truro	-14518
▁Undis	-14519
▁Using	-14520
▁Ville	-14521
▁Vélez	-14522
▁Wagen	-14523
▁Wendy	-14524
▁Whyte	-14525
▁Worne	-14526
▁Wyatt	-14527
▁Yamin	-14528
▁abstr	-14529
▁accru	-14530
▁acted	-14531
▁admin	-14532
▁aging	-14533
▁alloc	-14534
▁arena	-14535
▁argue	-14536
▁banis	-14537
▁bansa	-14538
▁bikes	-14539
▁bills	-14540
▁bonus	-14541
▁brake	-14542
▁brass	-14543
▁brick	-14544
▁cargo	-14545
▁carry	-14546
▁caste	-14547
▁charm	-14548
▁codes	-14549
▁coral	-14550
▁crack	-14551
▁crust	-14552
▁dagen	-14553
▁darts	-14554
▁dealt	-14555
▁delay	-14556
▁falls	-14557
▁fever	-14558
▁fewer	-14559
▁fines	-14560
▁fixed	-14561
▁flora	-14562
▁fraud	-14563
▁freed	-14564
▁hesit	-14565
▁hills	-14566
▁ideal	-14567
▁innov	-14568
▁intox	-14569
▁items	-14570
▁legit	-14571
▁lemur	-14572
▁lover	-14573
▁lying	-14574
▁maker	-14575
▁manor	-14576
▁merge	-14577
▁mobil	-14578
▁moves	-14579
▁naked	-14580
▁niece	-14581
▁nucle	-14582
▁opted	-14583
▁orang	-14584
▁pearl	-14585
▁penet	-14586
▁persu	-14587
▁pseud	-14588
▁pupil	-14589
▁ratio	-14590
▁reapp	-14591
▁recre	-14592
▁reiss	-14593
▁repro	-14594
▁revol	-14595
▁safer	-14596
▁seeks	-14597
▁shant	-14598
▁shift	-14599
▁slave	-14600
▁spite	-14601
▁stats	-14602
▁steal	-14603
▁sword	-14604
▁sworn	-14605
▁taste	-14606
▁tense	-14607
▁theor	-14608
▁thick	-14609
▁toile	-14610
▁topic	-14611
▁tours	-14612
▁trace	-14613
▁truth	-14614
▁umboh	-14615
▁vinyl	-14616
▁viola	-14617
▁virus	-14618
▁volat	-14619
▁wider	-14620
▁woods	-14621
▁wreck	-14622
▁zones	-14623
ウルトラマン	-14624
African	-14625
Edwards	-14626
Italian	-14627
Kendall	-14628
Sumatra	-14629
aasheid	-14630
actions	-14631
afonova	-14632
agascar	-14633
alities	-14634
angered	-14635
aschutz	-14636
assment	-14637
astical	-14638
aurants	-14639
country	-14640
culture	-14641
eration	-14642
ermodel	-14643
furacea	-14644
general	-14645
iciency	-14646
ificate	-14647
ifusión	-14648
ignated	-14649
imachus	-14650
iscopal	-14651
iveness	-14652
kanduli	-14653
lymouth	-14654
ogorets	-14655
ometers	-14656
ossible	-14657
ramento	-14658
redible	-14659
release	-14660
renches	-14661
surname	-14662
teacher	-14663
terbury	-14664
terling	-14665
through	-14666
vements	-14667
winning	-14668
written	-14669
–2024),	-14670
▁18,000	-14671
▁1937),	-14672
▁1987),	-14673
▁1994),	-14674
▁2000),	-14675
▁978-3-	-14676
▁AbbVie	-14677
▁Adkins	-14678
▁Affect	-14679
▁Alfred	-14680
▁Amanda	-14681
▁Ambass	-14682
▁Amlaib	-14683
▁Antiqu	-14684
▁Appeal	-14685
▁Arilou	-14686
▁Arnold	-14687
▁Ashley	-14688
▁Bargen	-14689
▁Barnes	-14690
▁Belaya	-14691
▁Buidhe	-14692
▁Bureau	-14693
▁Calder	-14694
▁Campus	-14695
▁Carson	-14696
▁Cathal	-14697
▁Charts	-14698
▁Clancy	-14699
▁Crimes	-14700
▁Crucis	-14701
▁Cruise	-14702
▁Danish	-14703
▁Devils	-14704
▁Durham	-14705
▁Dwight	-14706
▁Editor	-14707
▁Edmund	-14708
▁Employ	-14709
▁Euboea	-14710
▁Exilia	-14711
▁Eóghan	-14712
▁Farber	-14713
▁Fedlim	-14714
▁Fergus	-14715
▁Flores	-14716
▁Flyers	-14717
▁Flying	-14718
▁Fourth	-14719
▁Fraser	-14720
▁Gamble	-14721
▁Gangch	-14722
▁Genetz	-14723
▁Gibson	-14724
▁Gilles	-14725
▁Gilson	-14726
▁Glover	-14727
▁Gomera	-14728
▁Govern	-14729
▁Grammy	-14730
▁Greens	-14731
▁Gregor	-14732
▁Grimes	-14733
▁Guzmán	-14734
▁Harbor	-14735
▁Harris	-14736
▁Hassan	-14737
▁Headed	-14738
▁Henrik	-14739
▁Hesper	-14740
▁Hilton	-14741
▁Hospit	-14742
▁Huault	-14743
▁Hunter	-14744
▁Iranun	-14745
▁Javier	-14746
▁Joanna	-14747
▁Kagami	-14748
▁Klutho	-14749
▁Kodava	-14750
▁Kubang	-14751
▁Louvre	-14752
▁Lovely	-14753
▁Lumiar	-14754
▁Making	-14755
▁Marcos	-14756
▁Marcus	-14757
▁Marine	-14758
▁Martyr	-14759
▁Martín	-14760
▁Megumi	-14761
▁Memory	-14762
▁Method	-14763
▁Morgen	-14764
▁Morris	-14765
▁Morrow	-14766
▁Murray	-14767
▁Nordic	-14768
▁Olsson	-14769
▁Palest	-14770
▁Patrol	-14771
▁Persia	-14772
▁Photos	-14773
▁Phraat	-14774
▁Pidgin	-14775
▁Player	-14776
▁Please	-14777
▁Powell	-14778
▁Proper	-14779
▁Reform	-14780
▁Regatt	-14781
▁Reilly	-14782
▁Restor	-14783
▁Return	-14784
▁Roland	-14785
▁Royals	-14786
▁Rumble	-14787
▁Sandra	-14788
▁Shekou	-14789
▁Should	-14790
▁Sibley	-14791
▁Sparta	-14792
▁Squash	-14793
▁Stages	-14794
▁Syrian	-14795
▁Takuya	-14796
▁Tanzan	-14797
▁Teques	-14798
▁Thames	-14799
▁Titans	-14800
▁Titles	-14801
▁Toulon	-14802
▁Tribes	-14803
▁Trophy	-14804
▁Twelve	-14805
▁Tyrone	-14806
▁Underg	-14807
▁Verona	-14808
▁Viñals	-14809
▁Voices	-14810
▁Whilst	-14811
▁Willie	-14812
▁Willis	-14813
▁Zeynep	-14814
▁abrupt	-14815
▁abused	-14816
▁adoles	-14817
▁advise	-14818
▁afford	-14819
▁albedo	-14820
▁annals	-14821
▁aspect	-14822
▁assert	-14823
▁astron	-14824
▁backed	-14825
▁ballad	-14826
▁batted	-14827
▁brakes	-14828
▁breaks	-14829
▁burial	-14830
▁calcul	-14831
▁camera	-14832
▁cattle	-14833
▁charts	-14834
▁citing	-14835
▁colour	-14836
▁commem	-14837
▁commod	-14838
▁comput	-14839
▁convey	-14840
▁corpor	-14841
▁credit	-14842
▁dating	-14843
▁defenc	-14844
▁desert	-14845
▁desper	-14846
▁diesel	-14847
▁dingen	-14848
▁dinner	-14849
▁dramat	-14850
▁encomp	-14851
▁enhanc	-14852
▁enters	-14853
▁exceed	-14854
▁exempt	-14855
▁exotic	-14856
▁expand	-14857
▁expire	-14858
▁facets	-14859
▁feared	-14860
▁fierce	-14861
▁filmed	-14862
▁folded	-14863
▁franch	-14864
▁golden	-14865
▁grants	-14866
▁guests	-14867
▁guides	-14868
▁hadith	-14869
▁hanged	-14870
▁hatred	-14871
▁herald	-14872
▁hiding	-14873
▁hoping	-14874
▁humans	-14875
▁ideals	-14876
▁injury	-14877
▁insult	-14878
▁jailed	-14879
▁judged	-14880
▁keeper	-14881
▁labels	-14882
▁leaked	-14883
▁learnt	-14884
▁lemurs	-14885
▁linked	-14886
▁liquid	-14887
▁looked	-14888
▁makeup	-14889
▁mature	-14890
▁meters	-14891
▁mobile	-14892
▁movies	-14893
▁mutiny	-14894
▁nutrit	-14895
▁occupy	-14896
▁openly	-14897
▁ornith	-14898
▁outlaw	-14899
▁overth	-14900
▁oxygen	-14901
▁permit	-14902
▁perpet	-14903
▁pinyin	-14904
▁piracy	-14905
▁planet	-14906
▁plaque	-14907
▁poorly	-14908
▁poster	-14909
▁prefer	-14910
▁priest	-14911
▁pulled	-14912
▁quests	-14913
▁reconn	-14914
▁refurb	-14915
▁relied	-14916
▁repair	-14917
▁repeal	-14918
▁retali	-14919
▁rhythm	-14920
▁rising	-14921
▁ritual	-14922
▁sacred	-14923
▁seeing	-14924
▁sequel	-14925
▁shaman	-14926
▁shares	-14927
▁storms	-14928
▁strang	-14929
▁submit	-14930
▁survey	-14931
▁tablet	-14932
▁tackle	-14933
▁tastes	-14934
▁tenure	-14935
▁termed	-14936
▁thanks	-14937
▁thinks	-14938
▁thirty	-14939
▁thrott	-14940
▁towers	-14941
▁tribes	-14942
▁tryout	-14943
▁tutors	-14944
▁uncons	-14945
▁unlike	-14946
▁valves	-14947
▁voting	-14948
▁wounds	-14949
▁ноября	-14950
Dunchada	-14951
Hispanic	-14952
INCSOUTH	-14953
Southern	-14954
adequate	-14955
altender	-14956
anzzetta	-14957
ateboard	-14958
chestras	-14959
distance	-14960
division	-14961
elligent	-14962
elouahed	-14963
energien	-14964
fficking	-14965
football	-14966
ificance	-14967
iniscent	-14968
isations	-14969
ischarge	-14970
isonment	-14971
itiative	-14972
izomelic	-14973
ognition	-14974
overeign	-14975
pressure	-14976
produced	-14977
recorded	-14978
released	-14979
renville	-14980
speaking	-14981
specific	-14982
ustrated	-14983
▁(1970).	-14984
▁(1987),	-14985
▁(1995).	-14986
▁(2000).	-14987
▁(2002),	-14988
▁(2004).	-14989
▁(2009),	-14990
▁(2012).	-14991
▁(2015),	-14992
▁(2017).	-14993
▁2019–20	-14994
▁Achaean	-14995
▁Against	-14996
▁Airways	-14997
▁Alabama	-14998
▁Algeria	-14999
▁Arsacid	-15000
▁Athelia	-15001
▁Augusto	-15002
▁Baggage	-15003
▁Belarus	-15004
▁Belleza	-15005
▁Besides	-15006
▁Beskids	-15007
▁Beverly	-15008
▁Biology	-15009
▁Boeotia	-15010
▁Buffalo	-15011
▁Bukovka	-15012
▁Capital	-15013
▁Capitol	-15014
▁Cassius	-15015
▁Castine	-15016
▁Catalog	-15017
▁Centaur	-15018
▁Chester	-15019
▁Château	-15020
▁Cirelli	-15021
▁Climate	-15022
▁Comfort	-15023
▁Concept	-15024
▁Consult	-15025
▁Contest	-15026
▁Control	-15027
▁Counsel	-15028
▁Crimean	-15029
▁Cruises	-15030
▁Dimitri	-15031
▁Ecology	-15032
▁Economy	-15033
▁Embrace	-15034
▁Endless	-15035
▁Episode	-15036
▁Epitaph	-15037
▁Fennesz	-15038
▁Fiction	-15039
▁Fitzroy	-15040
▁Foligno	-15041
▁Forever	-15042
▁Frankie	-15043
▁Gindler	-15044
▁Ginette	-15045
▁Gonzaga	-15046
▁Harbour	-15047
▁Hongwon	-15048
▁Hotsuma	-15049
▁Hussein	-15050
▁Illyria	-15051
▁Indiana	-15052
▁Ithinin	-15053
▁Jessica	-15054
▁Journey	-15055
▁Kampong	-15056
▁Kashmir	-15057
▁Keertan	-15058
▁Kounnas	-15059
▁Krasnod	-15060
▁Ködnitz	-15061
▁Landtag	-15062
▁Legends	-15063
▁Leonard	-15064
▁Lorenzo	-15065
▁Madison	-15066
▁Manager	-15067
▁Maranao	-15068
▁Marcelo	-15069
▁Masters	-15070
▁Maynard	-15071
▁Meaning	-15072
▁Mercury	-15073
▁Munster	-15074
▁Namibia	-15075
▁Nicolas	-15076
▁Nielsen	-15077
▁Norfolk	-15078
▁Nursery	-15079
▁Officer	-15080
▁Pacorus	-15081
▁Perform	-15082
▁Private	-15083
▁Product	-15084
▁Provost	-15085
▁Qutlugh	-15086
▁Radical	-15087
▁Roberto	-15088
▁Roberts	-15089
▁Romania	-15090
▁Savages	-15091
▁Saviour	-15092
▁Seeking	-15093
▁Sheldon	-15094
▁Shigeru	-15095
▁Simpson	-15096
▁Stanley	-15097
▁Stroppe	-15098
▁Tejuoso	-15099
▁Tobacco	-15100
▁Tsutomu	-15101
▁Ubatuba	-15102
▁Ugolino	-15103
▁Venture	-15104
▁Vorskla	-15105
▁Zelenin	-15106
▁academy	-15107
▁acclaim	-15108
▁advised	-15109
▁ambient	-15110
▁amounts	-15111
▁announc	-15112
▁anxious	-15113
▁articul	-15114
▁balance	-15115
▁bassist	-15116
▁batting	-15117
▁beliefs	-15118
▁belongs	-15119
▁benefit	-15120
▁biggest	-15121
▁cantons	-15122
▁charity	-15123
▁choices	-15124
▁clinics	-15125
▁closure	-15126
▁coached	-15127
▁courage	-15128
▁crowned	-15129
▁crucial	-15130
▁dancers	-15131
▁dangkan	-15132
▁debated	-15133
▁declare	-15134
▁depicts	-15135
▁deposed	-15136
▁dialect	-15137
▁diploma	-15138
▁doubles	-15139
▁exhaust	-15140
▁experim	-15141
▁experts	-15142
▁explain	-15143
▁explode	-15144
▁extends	-15145
▁extreme	-15146
▁faction	-15147
▁failing	-15148
▁feigned	-15149
▁fencing	-15150
▁finance	-15151
▁flanges	-15152
▁garment	-15153
▁grammar	-15154
▁guarant	-15155
▁handing	-15156
▁highway	-15157
▁insight	-15158
▁justice	-15159
▁kalamat	-15160
▁kibbutz	-15161
▁kidnapp	-15162
▁matters	-15163
▁measure	-15164
▁medical	-15165
▁minimum	-15166
▁mounted	-15167
▁mystery	-15168
▁nozzles	-15169
▁obliged	-15170
▁obovata	-15171
▁onwards	-15172
▁oversee	-15173
▁pageant	-15174
▁passage	-15175
▁payment	-15176
▁pirates	-15177
▁plastic	-15178
▁poverty	-15179
▁prepare	-15180
▁radical	-15181
▁ranging	-15182
▁rapidly	-15183
▁redwood	-15184
▁relinqu	-15185
▁reorgan	-15186
▁resumed	-15187
▁revenue	-15188
▁reverse	-15189
▁rounded	-15190
▁runners	-15191
▁servers	-15192
▁sharing	-15193
▁shelter	-15194
▁shutout	-15195
▁skipper	-15196
▁speaker	-15197
▁sponsor	-15198
▁spotted	-15199
▁streets	-15200
▁summary	-15201
▁survive	-15202
▁tallest	-15203
▁testing	-15204
▁torture	-15205
▁travels	-15206
▁treason	-15207
▁treated	-15208
▁tritium	-15209
▁trouble	-15210
▁trumpet	-15211
▁victims	-15212
▁warning	-15213
▁weather	-15214
▁willing	-15215
▁windows	-15216
▁worried	-15217
▁writers	-15218
:10.1007/	-15219
:10.1353/	-15220
Caribbean	-15221
committee	-15222
completed	-15223
connected	-15224
generally	-15225
ibilities	-15226
identally	-15227
ouncillor	-15228
purchased	-15229
represent	-15230
ructuring	-15231
tisements	-15232
traumatic	-15233
▁Achaeans	-15234
▁Aircraft	-15235
▁Americas	-15236
▁Anderson	-15237
▁Arkansas	-15238
▁Attorney	-15239
▁Benjamin	-15240
▁Berkeley	-15241
▁Brampton	-15242
▁Broadway	-15243
▁Bulletin	-15244
▁Calcutta	-15245
▁Canberra	-15246
▁Cardinal	-15247
▁Champion	-15248
▁Dalkılıç	-15249
▁Deportes	-15250
▁Discover	-15251
▁Egyptian	-15252
▁Ensemble	-15253
▁Exterior	-15254
▁Falkland	-15255
▁Fernando	-15256
▁Flanders	-15257
▁Founders	-15258
▁Franklin	-15259
▁Girolamo	-15260
▁Grateful	-15261
▁Hartland	-15262
▁Homicide	-15263
▁Humboldt	-15264
▁Industry	-15265
▁Institut	-15266
▁Johannes	-15267
▁Jonathan	-15268
▁Kedatuan	-15269
▁Lacrosse	-15270
▁Lindhout	-15271
▁Mangilai	-15272
▁Manufact	-15273
▁Marquess	-15274
▁Minority	-15275
▁Monaghan	-15276
▁Moreover	-15277
▁Morrison	-15278
▁Mountjoy	-15279
▁Movement	-15280
▁Muthanna	-15281
▁Nachhalt	-15282
▁Nicholas	-15283
▁Octavian	-15284
▁Olbrycht	-15285
▁Oliveira	-15286
▁Pakiring	-15287
▁Pakistan	-15288
▁Pararcte	-15289
▁Peruvian	-15290
▁Platform	-15291
▁Plutarch	-15292
▁Polenova	-15293
▁Purchase	-15294
▁Ranginui	-15295
▁Regiment	-15296
[...]
